<unk>	0
<s>	0
</s>	0
,	-2.22537
。	-3.09595
的	-3.45634
▁	-4.50179
了	-4.56295
▁“	-4.71896
韩立	-5.1401
。”	-5.24176
在	-5.37742
后	-5.47323
就	-5.58529
和	-5.65535
也	-5.7633
!	-5.76398
他	-5.77961
中	-5.81666
但	-5.84375
一	-5.99409
我	-6.0055
下	-6.02897
这	-6.04887
是	-6.14193
上	-6.14589
那	-6.14783
来	-6.16518
却	-6.19846
▁韩立	-6.2146
!”	-6.21798
将	-6.25215
你	-6.25289
有	-6.26795
”	-6.27535
从	-6.28754
一下	-6.30093
起来	-6.36212
被	-6.37434
再	-6.43759
都	-6.43879
?”	-6.45006
人	-6.45572
不	-6.4768
道友	-6.58677
并	-6.59806
一个	-6.60574
大	-6.62892
竟	-6.63036
此	-6.64011
“	-6.64196
而	-6.67686
又	-6.68666
只是	-6.7063
着	-6.7124
我们	-6.73671
什么	-6.7689
时	-6.77333
吧	-6.78107
?	-6.79227
没有	-6.80052
对	-6.81173
的说道	-6.81376
用	-6.82231
的样子	-6.82592
但是	-6.82668
还是	-6.8363
还	-6.86296
去	-6.86334
虽然	-6.86573
让	-6.88577
地	-6.88824
有些	-6.88852
同时	-6.89522
不过	-6.90854
自然	-6.92192
这些	-6.92818
可	-6.93111
才	-6.94049
其	-6.94431
到	-6.95044
顿时	-6.99563
对方	-7.01436
能	-7.01738
就是	-7.01946
自己	-7.0353
好	-7.04647
似乎	-7.05387
:“	-7.05642
一些	-7.05744
他们	-7.0586
要	-7.09867
外	-7.0987
如此	-7.10961
的话	-7.1194
同样	-7.1386
之下	-7.13931
竟然	-7.1644
到了	-7.16704
向	-7.18341
修士	-7.18449
立刻	-7.18868
老者	-7.19537
仿佛	-7.2004
真	-7.20637
处	-7.22833
道	-7.23421
想	-7.23522
则	-7.24809
现在	-7.25316
身上	-7.25355
已经	-7.25558
卷	-7.27772
等	-7.28403
出	-7.29241
前辈	-7.29849
过	-7.31099
往	-7.32472
在下	-7.32603
突然	-7.33446
忽然	-7.34017
▁而	-7.35162
可以	-7.35311
直接	-7.35721
一般	-7.37063
前	-7.37071
这位	-7.3794
吗	-7.38394
小	-7.3904
然后	-7.39297
再次	-7.40423
手中	-7.40668
那些	-7.41278
说	-7.4232
正	-7.4321
会	-7.43397
心中	-7.43656
一名	-7.45114
出来	-7.45759
章	-7.46247
天	-7.47442
你们	-7.47539
一声	-7.48757
、	-7.49028
也是	-7.49075
▁他	-7.49191
多	-7.49662
而已	-7.49833
的事情	-7.50653
之	-7.50842
蓦然	-7.50928
若是	-7.50944
当即	-7.51208
其他	-7.51286
修为	-7.51586
无法	-7.51608
二人	-7.51713
一只	-7.51847
异常	-7.52442
以	-7.53384
先	-7.54266
冲	-7.54711
开始	-7.5532
接着	-7.55995
脸上	-7.56568
看	-7.56871
之人	-7.57686
此女	-7.57999
神通	-7.5849
说道	-7.59883
不是	-7.60375
马上	-7.60675
否则	-7.62297
之色	-7.62626
只有	-7.63017
内	-7.63779
看来	-7.64234
▁但	-7.65161
全都	-7.653
她	-7.65955
修炼	-7.68647
原本	-7.68761
禁制	-7.6945
把	-7.69545
口中	-7.69858
并且	-7.69918
只要	-7.70052
终于	-7.70259
给	-7.7072
附近	-7.71226
这种	-7.71365
一阵	-7.71744
般的	-7.71781
因为	-7.73119
其中	-7.7372
不禁	-7.74491
巨大	-7.74824
不知	-7.75415
只	-7.76034
宝物	-7.76048
▁不过	-7.76852
心	-7.77111
时间	-7.77244
一道	-7.77631
既然	-7.77855
身形	-7.78735
恐怕	-7.79069
更是	-7.79373
得	-7.79472
女子	-7.79521
所	-7.79768
韩兄	-7.79883
倒	-7.80031
神色	-7.80417
瞬间	-7.80768
我等	-7.80974
▁这	-7.81251
里面	-7.81371
此事	-7.82689
这个	-7.82867
连	-7.83656
头	-7.83943
无	-7.8397
一片	-7.84434
应该	-7.84666
无数	-7.84696
韩道友	-7.84755
长	-7.84765
老夫	-7.86857
之极	-7.86906
而去	-7.87432
法力	-7.87949
声	-7.88034
重新	-7.88085
更	-7.88145
反而	-7.88211
除了	-7.8844
可是	-7.88462
啊	-7.88601
黑色	-7.88641
弟子	-7.8885
晚辈	-7.88949
走	-7.89491
成	-7.89574
一点	-7.8971
急忙	-7.89728
还有	-7.8975
灵	-7.89915
一丝	-7.91006
起	-7.91597
金	-7.91685
知道	-7.9219
几乎	-7.92574
目光	-7.93466
白	-7.9374
这般	-7.93842
都是	-7.94267
听	-7.94646
怎么	-7.94699
黑	-7.94849
的确	-7.94942
纷纷	-7.95291
脸色	-7.9593
发出	-7.96281
▁这时	-7.96809
刚才	-7.96827
之事	-7.97331
法阵	-7.97381
三	-7.97899
最	-7.98022
傀儡	-7.98246
的修士	-7.98257
出现	-7.98371
表面	-7.98616
此人	-7.99346
之中	-7.99671
而且	-7.99903
进入	-7.99959
血	-8.00103
中的	-8.00527
只能	-8.00551
化为	-8.00808
身躯	-8.00889
间	-8.01076
最后	-8.01121
▁在	-8.01173
一股	-8.01237
为	-8.01375
浮现而出	-8.01725
子	-8.02223
两	-8.02303
金色	-8.02932
手	-8.03007
东西	-8.03221
出手	-8.03292
某	-8.03408
声音	-8.03477
见	-8.04099
毕竟	-8.04219
双目	-8.04242
已	-8.0464
一闪	-8.04762
打	-8.04846
当	-8.05039
元婴	-8.05131
不错	-8.05158
即使	-8.05486
传来	-8.05718
彻底	-8.06169
巨	-8.06277
丝毫	-8.06893
三人	-8.06923
真的	-8.0704
一副	-8.07659
而是	-8.0773
四	-8.07895
难道	-8.08007
男子	-8.08232
大汉	-8.08762
一件	-8.08833
青年	-8.09003
心里	-8.09757
做	-8.09821
存在	-8.10086
四周	-8.10323
此地	-8.1073
就算	-8.10776
魔族	-8.10799
发现	-8.10847
光	-8.10945
口	-8.10974
攻击	-8.11096
此物	-8.11354
一直	-8.11384
一层	-8.11465
个	-8.11932
......”	-8.12076
这次	-8.12117
比	-8.12895
这里	-8.13132
如何	-8.13279
等人	-8.13404
没	-8.13623
它	-8.13676
火	-8.13777
气	-8.14178
甚至	-8.14238
见此	-8.14624
之上	-8.14805
实在	-8.14821
觉得	-8.1494
很	-8.15388
倒是	-8.16276
了起来	-8.163
之后	-8.16404
法器	-8.1763
的时候	-8.1771
随即	-8.17715
韩某	-8.17759
的问道	-8.1781
少女	-8.18033
▁此	-8.18047
炼制	-8.18355
高	-8.18882
所有	-8.18894
功法	-8.19081
动	-8.19113
露出	-8.19752
结果	-8.19802
青	-8.20134
上空	-8.20216
朝	-8.20451
魔	-8.20636
风	-8.20767
不会	-8.21454
的东西	-8.21482
快	-8.22035
银色	-8.22258
正是	-8.22431
离开	-8.22733
一眼	-8.22841
一座	-8.22915
面	-8.23156
山	-8.23339
之处	-8.23437
兄	-8.23474
若	-8.23588
不但	-8.23666
的人	-8.23748
一起	-8.2409
仍	-8.2461
长老	-8.24849
五	-8.24866
带	-8.24896
身	-8.2533
事情	-8.25519
纵然	-8.26002
出现在了	-8.26281
空中	-8.26462
变得	-8.26468
青色	-8.2647
战	-8.26571
自	-8.26613
想要	-8.26948
一团	-8.27069
一人	-8.2707
的回道	-8.27519
上面	-8.27745
嘿嘿	-8.27747
回	-8.27861
开	-8.27861
打算	-8.28109
以后	-8.28554
些	-8.28594
银	-8.28814
面上	-8.28937
先前	-8.28942
如今	-8.29139
肯定	-8.2916
当年	-8.29315
两只	-8.30117
二	-8.30729
飞	-8.30773
准备	-8.30829
发	-8.30841
那名	-8.30859
▁顿时	-8.30961
一样	-8.31568
金光	-8.3161
虚影	-8.31794
传出	-8.31881
猛然	-8.32043
神念	-8.32118
方向	-8.32813
全	-8.3315
住	-8.33173
让韩立	-8.3381
银月	-8.34019
出了	-8.34087
离	-8.34088
轻	-8.34332
石	-8.34468
人影	-8.34486
闻言	-8.34538
一种	-8.34725
一块	-8.34772
这一次	-8.34807
材料	-8.34917
就将	-8.34935
哼	-8.34992
生	-8.35257
灵石	-8.35359
并没有	-8.35369
头颅	-8.35596
一次	-8.35872
妖兽	-8.3592
根本	-8.36083
这样	-8.36291
未	-8.36303
才能	-8.36308
当然	-8.36431
一张	-8.36741
七	-8.36881
过去	-8.37067
水	-8.37335
呢	-8.37425
真是	-8.37514
遁光	-8.37664
就要	-8.37787
眼前	-8.38003
光幕	-8.38111
名	-8.38364
身体	-8.38379
相	-8.38504
问道	-8.38559
有什么	-8.38569
它们	-8.38705
闪动	-8.38747
之意	-8.38918
的地方	-8.39132
倒也	-8.39212
而出	-8.39258
太	-8.39443
激射而出	-8.39673
一位	-8.406
背后	-8.407
露出了	-8.40804
可能	-8.40992
花	-8.41335
话	-8.41401
一颗	-8.41478
之力	-8.42088
数	-8.42622
飞出	-8.42706
找	-8.42866
让他	-8.42955
人族	-8.4326
所以	-8.43349
刚	-8.43358
几人	-8.43404
并未	-8.43621
体表	-8.43651
门	-8.43856
白色	-8.43894
老	-8.43897
就在	-8.43946
一见	-8.44076
分	-8.44115
早	-8.44146
如	-8.44166
▁但是	-8.44482
整个	-8.44493
直奔	-8.44676
兽	-8.44794
下方	-8.44983
死	-8.45395
地方	-8.45405
放出	-8.45444
将其	-8.45494
像	-8.45685
一边	-8.45872
目中	-8.46021
▁这些	-8.46367
飞剑	-8.46538
当初	-8.46605
主人	-8.46751
至于	-8.46754
早就	-8.46949
半	-8.47281
秘术	-8.47358
本	-8.47359
气息	-8.47698
一口	-8.4785
入	-8.47874
事	-8.47879
成了	-8.48044
眼	-8.48063
一番	-8.48388
的一声	-8.48915
诡异	-8.49196
其他人	-8.49333
继续	-8.49616
妖	-8.49661
施展	-8.49776
那位	-8.49997
化为了	-8.50311
两名	-8.50437
叫	-8.50438
法宝	-8.5052
十	-8.50662
另外	-8.51191
的意思	-8.51221
需要	-8.51304
进	-8.51344
不用	-8.51384
重	-8.51401
飞快	-8.51434
▁只见	-8.51442
之地	-8.51915
看起来	-8.52106
看到	-8.52171
来说	-8.52206
这么	-8.52314
无比	-8.52371
之极的	-8.52657
普通	-8.52726
不停	-8.52739
还真	-8.53016
都没有	-8.53023
光芒	-8.53082
随之	-8.53185
难	-8.5322
随后	-8.53372
一条	-8.534
威力	-8.53455
不少	-8.53724
正好	-8.53966
以前	-8.54076
灵光	-8.54215
木	-8.54545
符箓	-8.54582
......	-8.54681
在了	-8.54758
自己的	-8.54758
无论	-8.54831
喷出	-8.54909
下面	-8.55066
之物	-8.5536
显然	-8.55442
六	-8.55649
浮现	-8.55779
虚空	-8.55958
强	-8.56001
威能	-8.56135
神识	-8.56385
远	-8.56559
身前	-8.56561
缓缓	-8.56588
两人	-8.56599
身后	-8.56784
放	-8.57161
鬼	-8.57207
下来	-8.57246
早已	-8.57425
化	-8.57715
问	-8.58201
体内	-8.58326
黄	-8.58396
般	-8.58582
或	-8.59102
光柱	-8.59176
妇人	-8.59367
八	-8.59392
不知道	-8.59415
灵药	-8.59622
点	-8.59711
了下来	-8.59719
阁下	-8.59752
一击	-8.59896
九	-8.59919
为了	-8.60054
好了	-8.60174
正在	-8.60355
过来	-8.60397
带着	-8.60417
的模样	-8.60611
单手	-8.60682
让其	-8.60738
就可	-8.60746
这人	-8.60766
万	-8.60892
这是	-8.60977
自行	-8.61048
在此	-8.61061
果然	-8.61085
这才	-8.61422
青光	-8.61579
魔气	-8.61989
还要	-8.62095
家	-8.62613
各	-8.62646
▁虽然	-8.62814
一对	-8.62821
却是	-8.62831
一个个	-8.62865
蓝色	-8.62915
深	-8.63007
轻易	-8.6306
一张口	-8.63348
非常	-8.63512
妾身	-8.63627
此刻	-8.63707
法诀	-8.63868
掉	-8.64055
几个	-8.64292
有人	-8.64363
力	-8.6445
里	-8.64502
放心	-8.6454
望着	-8.64732
玉	-8.64876
血光	-8.65067
让人	-8.65354
原先	-8.65524
站在	-8.65694
不能	-8.65898
那只	-8.65995
大半	-8.6608
浑身	-8.66097
▁至于	-8.66293
符文	-8.66575
每	-8.66597
均都	-8.66935
不可能	-8.67051
凭空	-8.67114
真正	-8.67276
强大	-8.67305
不敢	-8.67346
狂	-8.68039
看似	-8.68113
催动	-8.68147
红	-8.68387
变化	-8.68395
眼中	-8.68409
完全	-8.68659
淡淡	-8.68867
不已	-8.68879
所化	-8.68932
白光	-8.69042
几	-8.69049
霞光	-8.69108
如同	-8.69166
故而	-8.69215
▁结果	-8.69271
下去	-8.69388
之言	-8.69534
见到	-8.69638
师兄	-8.69724
两个	-8.69839
各种	-8.69863
丹药	-8.69995
面前	-8.70016
就此	-8.70142
直	-8.70202
另	-8.70514
黑气	-8.70583
此宝	-8.70606
暂时	-8.70687
得到	-8.7079
近	-8.70994
分毫	-8.71301
与	-8.71367
山峰	-8.71388
任何	-8.71496
竟是	-8.71516
后面	-8.71646
师弟	-8.71713
之声	-8.71716
冰	-8.71865
云	-8.71883
的声音	-8.72001
一定	-8.72614
血色	-8.72757
双手	-8.73106
▁接着	-8.73315
是否	-8.73438
望去	-8.73485
五色	-8.73536
主	-8.73594
那里	-8.7369
微微	-8.7385
远处	-8.73947
对付	-8.73962
不见了踪影	-8.74031
谁	-8.74289
仍然	-8.7446
就会	-8.74676
神	-8.74698
惊人	-8.74699
也就	-8.74765
隐隐	-8.74863
意外	-8.75023
略	-8.75079
的存在	-8.75113
密密麻麻的	-8.75209
绿	-8.75249
表情	-8.75583
希望	-8.75606
洞府	-8.75685
麻烦	-8.75709
符	-8.76041
根本无法	-8.76321
了一些	-8.76353
明显	-8.76358
传送阵	-8.76427
反	-8.7643
宝花	-8.76607
赫然	-8.76618
通道	-8.76652
使用	-8.76766
仔细	-8.76858
大人	-8.76917
手段	-8.76961
一闪的	-8.76992
剑	-8.77078
联手	-8.77182
实力	-8.77223
击	-8.77507
了一下	-8.77825
一惊	-8.77873
雷	-8.78254
的巨大	-8.78284
一动	-8.78296
别	-8.78353
灵气	-8.78583
听到	-8.78616
大乘	-8.78625
对面	-8.78846
噬金虫	-8.78929
众人	-8.78975
也不会	-8.79092
灵界	-8.79454
化身	-8.79609
必须	-8.7971
诡异的	-8.79835
剑光	-8.80341
族	-8.80421
新	-8.80526
不好	-8.809
从中	-8.80978
灵力	-8.81142
此兽	-8.81346
一二	-8.81366
于	-8.81373
一处	-8.81586
▁......	-8.81612
消失	-8.81717
杀	-8.81997
骤然	-8.82033
骨	-8.82121
然	-8.82215
由	-8.8224
不成	-8.8245
一面	-8.82566
受	-8.82625
而下	-8.82684
体	-8.82913
附近的	-8.82979
亲自	-8.83083
厉害	-8.83284
阴	-8.83351
出现了	-8.8346
日	-8.83541
通体	-8.83658
说的	-8.83659
电弧	-8.83678
狠狠	-8.83846
地面	-8.84049
的修为	-8.84077
光罩	-8.84093
方一	-8.84103
这等	-8.84119
稍	-8.84137
落	-8.84237
激射而去	-8.84289
拥有	-8.84375
思量	-8.8445
足有	-8.84777
南陇侯	-8.84784
意	-8.84865
越	-8.84879
面容	-8.85131
魔兽	-8.85154
紫色	-8.85212
轰	-8.85341
中心处	-8.85349
但也	-8.85404
境界	-8.85733
▁那	-8.86036
换	-8.86057
黄色	-8.86099
路	-8.86146
有点	-8.86601
行	-8.86625
敢	-8.86803
派	-8.86844
经过	-8.86848
巨猿	-8.86915
说不定	-8.87045
空	-8.87192
射出	-8.87221
玉简	-8.87264
情形	-8.87269
明	-8.87272
点点头	-8.87327
封印	-8.87432
两手	-8.87452
儿	-8.87552
模样	-8.87608
也没有	-8.8766
滚滚	-8.87945
绿色	-8.88026
大小	-8.88079
更加	-8.88161
轻轻	-8.88181
神情	-8.88382
晶莹	-8.88503
送	-8.88558
炼化	-8.88588
本体	-8.88608
转	-8.8868
色	-8.88762
这些人	-8.88875
请	-8.88906
蓝	-8.89387
一时	-8.89387
面色	-8.89394
面对	-8.89447
徐徐	-8.8946
女	-8.89584
我二人	-8.89682
危险	-8.89973
再说	-8.90089
一会儿	-8.90115
几位	-8.90137
这时	-8.90173
物	-8.90277
多半	-8.90319
找到	-8.90469
各自	-8.90522
有几分	-8.906
就被	-8.906
一把	-8.90659
砰	-8.90721
身处	-8.90734
取	-8.90789
绝对	-8.90807
之间	-8.9105
来的	-8.91069
一切	-8.91134
上的	-8.91218
的表情	-8.91498
▁下一刻	-8.9152
强行	-8.91545
乱	-8.91619
渐渐	-8.91644
也有	-8.91647
而来	-8.91788
冲韩立	-8.91934
肉身	-8.92177
前方	-8.92186
暗	-8.92396
紫	-8.92417
有了	-8.92568
和韩立	-8.92867
化为一道	-8.93064
定	-8.93243
修仙者	-8.93509
传送	-8.93522
自然是	-8.93621
盯着	-8.93775
几分	-8.93869
怎会	-8.93879
原来	-8.94043
看看	-8.94124
进了	-8.94242
开口	-8.94261
▁于是	-8.94341
动用	-8.9453
一收	-8.94649
的神通	-8.94687
仙子	-8.94756
现出	-8.94773
刚刚	-8.94778
一头	-8.94908
不要	-8.95
不同	-8.95223
能够	-8.95383
的确是	-8.95402
拿	-8.95408
出现在	-8.95449
少妇	-8.95658
显得	-8.9573
消息	-8.95833
少	-8.95927
尽	-8.96009
的是	-8.96148
▁第十	-8.9618
分别	-8.96208
答应	-8.96246
见此情形	-8.96267
低	-8.96313
而起	-8.96488
怪	-8.965
听说	-8.96512
最终	-8.96664
众多	-8.96889
想来	-8.96929
海	-8.97121
身份	-8.97499
没有什么	-8.97618
略一	-8.97619
还能	-8.97637
动手	-8.97738
微	-8.97903
或者	-8.98007
墨大夫	-8.98042
浮现出	-8.98208
火球	-8.98209
光球	-8.98226
其实	-8.98248
手掌	-8.98331
术	-8.98388
好像	-8.98399
笑	-8.988
之一	-8.98903
空间	-8.98915
行动	-8.99013
片刻后	-8.99066
的时间	-8.99201
三名	-8.9929
头顶	-8.99366
极	-8.99417
一身	-8.99571
一怔	-8.99587
破	-8.9959
赤红	-8.99677
儒生	-8.99797
一笑	-8.99801
大战	-8.99835
异族	-8.99979
那边	-8.99984
没想到	-9.00068
巨剑	-9.00212
没什么	-9.00255
通过	-9.00358
韩前辈	-9.00642
紫灵	-9.00701
看了	-9.00857
参加	-9.01067
有关	-9.01091
勉强	-9.01157
了出来	-9.01177
但马上	-9.01196
身子	-9.01229
性	-9.01434
中年人	-9.015
曲魂	-9.01562
抵挡	-9.01608
还真是	-9.0187
传	-9.0189
也不	-9.01933
字	-9.02194
出去	-9.02242
粗	-9.0226
离开了	-9.02344
一根	-9.02636
其余	-9.02727
目	-9.02732
布置	-9.02944
来了	-9.03037
相信	-9.03167
南宫婉	-9.03202
宝	-9.03296
多少	-9.03299
视	-9.03374
也只能	-9.0363
一旦	-9.0371
也会	-9.03883
驱使	-9.03918
一晃	-9.03951
那人	-9.04219
施法	-9.04511
回道	-9.04529
那个	-9.0453
因此	-9.04578
成功	-9.04877
月	-9.0498
飞射而出	-9.05158
追	-9.05216
遍布	-9.05299
手臂	-9.05329
并不	-9.05524
手中的	-9.05789
借助	-9.05809
落下	-9.05809
小瓶	-9.0582
书	-9.06099
遁速	-9.0613
一扫	-9.06252
雾气	-9.06324
言	-9.06428
也许	-9.06565
留下	-9.06668
法士	-9.06704
看着	-9.06791
大殿	-9.06847
毒	-9.06902
天空	-9.06913
火焰	-9.06972
压	-9.0701
才是	-9.07028
住了	-9.07325
哦	-9.07351
淡淡的	-9.07378
速度	-9.07404
一抖	-9.07419
旁边	-9.07509
脸	-9.07535
估计	-9.07574
影	-9.07691
漆黑	-9.07817
阁楼	-9.07942
进去	-9.08245
距离	-9.08331
一道道	-9.08368
势力	-9.08576
地上	-9.08651
光霞	-9.08672
清楚	-9.08685
同	-9.08954
手上	-9.09
过了	-9.09017
出口	-9.09027
二话不说的	-9.09126
仙	-9.09191
天渊城	-9.09545
哪	-9.09648
小心	-9.09775
咦	-9.10063
在这	-9.10196
大阵	-9.10219
呵呵	-9.10291
自身	-9.1039
转眼间	-9.10434
本身	-9.10467
奇	-9.10472
接	-9.10686
走去	-9.10947
之术	-9.11037
异常的	-9.1105
跟	-9.11061
深处	-9.11132
轰隆隆	-9.11195
在韩立	-9.11326
种	-9.11365
总算	-9.11371
晶	-9.11413
一口气	-9.11523
问题	-9.11544
交换	-9.11649
并非	-9.11649
望	-9.11698
姓	-9.11758
对韩立	-9.118
没入	-9.11818
不管	-9.11854
‘	-9.11913
有何	-9.11915
绝	-9.11975
高阶	-9.12015
齐	-9.12022
方	-9.12035
收	-9.12071
手指	-9.12081
一动不动	-9.12169
山脉	-9.1217
之时	-9.12251
韩立等人	-9.12268
恢复	-9.12357
’	-9.12382
接连	-9.12721
魂	-9.1291
寒	-9.12962
起了	-9.13098
毫不犹豫的	-9.13251
身形一晃	-9.13318
控制	-9.13417
两位	-9.13546
到时	-9.13561
变	-9.13576
法术	-9.13623
▁魔界之	-9.13647
相比	-9.13757
银光	-9.13883
虚天鼎	-9.14035
如此多	-9.14071
一同	-9.14073
古魔	-9.1417
流	-9.1421
▁因为	-9.14366
笑容	-9.1445
信	-9.14615
合	-9.14811
惊	-9.14942
王	-9.14989
以及	-9.15031
将手中	-9.15053
按	-9.15056
愿意	-9.15108
千	-9.1517
况且	-9.15233
甲	-9.15252
巨人	-9.15441
也无法	-9.15536
围着	-9.15623
面无表情的	-9.15639
交	-9.15644
蛟	-9.15679
年	-9.1574
中间	-9.158
感到	-9.15859
坐	-9.15875
小山	-9.15916
见过	-9.16035
韩立却	-9.16039
还未	-9.16224
在空中	-9.16227
圆珠	-9.16255
落在了	-9.16283
龙	-9.16307
五指	-9.16331
大有	-9.16451
的话语	-9.16466
眉头一皱	-9.16471
一枚	-9.16587
▁第九	-9.16663
土	-9.16706
的瞬间	-9.16778
灵兽	-9.16807
去了	-9.16856
位	-9.16862
▁如此一来	-9.16872
上了	-9.16969
所在	-9.17029
不见	-9.17097
走了	-9.1711
功	-9.17174
百族	-9.17198
为之	-9.17201
的目光	-9.17203
之多	-9.17216
当日	-9.17344
奇怪	-9.17388
专门	-9.17464
是不是	-9.17599
将那	-9.17651
到此	-9.17655
十分	-9.1792
药	-9.17995
高空中	-9.1832
铁	-9.18382
▁当然	-9.18462
的情形	-9.18464
宗门	-9.18521
一句	-9.18552
按照	-9.18563
小人	-9.18691
元	-9.18765
刀	-9.18769
百	-9.18942
两眼	-9.18954
也只有	-9.19021
至	-9.19053
击杀	-9.19159
▁毕竟	-9.1916
▁灵界	-9.1931
口气	-9.1935
大为	-9.19362
响起	-9.19398
此时	-9.19414
不再	-9.19569
在其	-9.19693
一时间	-9.19699
尚未	-9.19718
进阶	-9.19745
了许多	-9.19773
都被	-9.19783
哈哈	-9.198
争斗	-9.19808
乌黑	-9.19813
三个	-9.1989
此种	-9.1989
关	-9.19902
魔界	-9.19916
露出一丝	-9.19949
大厅	-9.19974
外面	-9.20061
不小	-9.20077
香	-9.20137
远远	-9.20178
灭杀	-9.20253
冰凤	-9.20271
陨落	-9.20293
刹那间	-9.20357
之前	-9.20507
大概	-9.20559
首	-9.2056
清	-9.2057
交易	-9.20755
也要	-9.20868
迟疑	-9.21109
望了	-9.21197
张	-9.21244
灰色	-9.21441
一下变得	-9.21448
师傅	-9.21454
一脸	-9.21585
元瑶	-9.21617
跑	-9.21671
返回	-9.21719
了几分	-9.21793
翻滚	-9.21862
算	-9.21884
老魔	-9.2208
数量	-9.22351
者	-9.22366
通	-9.22522
客气	-9.22581
吞噬	-9.22667
程度	-9.22747
团	-9.22833
修	-9.22859
稍微	-9.22871
光团	-9.22879
部分	-9.22922
隐约	-9.22958
两侧	-9.23018
打开	-9.23046
冒出	-9.2308
虚空中	-9.23211
主动	-9.23359
明白	-9.23364
两道	-9.23548
马	-9.23576
能否	-9.23601
对此	-9.23713
引	-9.2384
退	-9.23919
▁而在	-9.23928
韩立和	-9.23929
所说	-9.23968
要不是	-9.24008
也不是	-9.24159
凡人	-9.24218
红光	-9.24269
较	-9.24273
命	-9.24425
立即	-9.24434
竟一下	-9.24576
少年	-9.24596
元神	-9.2465
差	-9.24719
曾经	-9.24747
样子	-9.25056
在这里	-9.25065
莫简离	-9.25338
▁韩立见此	-9.25437
族人	-9.25466
听了	-9.25537
加入	-9.2555
在附近	-9.25577
一分	-9.25599
我也	-9.25605
为何	-9.25679
可惜	-9.25686
▁当	-9.25757
一卷	-9.25762
举动	-9.25869
随着	-9.25888
陇家老祖	-9.25922
▁原本	-9.2606
令牌	-9.26063
满脸	-9.2636
罢了	-9.26452
就立刻	-9.26474
应该是	-9.26545
满	-9.26555
伤	-9.2658
珠	-9.26712
望了一眼	-9.26783
大喜	-9.26801
不得不	-9.26847
给我	-9.26913
吃惊	-9.27084
消失的无影无踪	-9.27304
地面上	-9.27395
担心	-9.2743
▁老者	-9.27433
你我	-9.27464
形	-9.27497
众	-9.2753
则是	-9.27551
一听	-9.27582
笼罩	-9.27617
提	-9.27679
方法	-9.27685
边	-9.27702
情	-9.27746
不想	-9.2784
够	-9.27868
仙师	-9.2787
令	-9.27944
狼	-9.2798
飞遁	-9.2805
飓风	-9.28089
急	-9.28199
尸	-9.28276
拼命	-9.28282
对手	-9.28319
宗	-9.28325
女修	-9.28329
阵	-9.28375
何	-9.28392
立	-9.28505
消失了	-9.2853
此山	-9.28632
颜色	-9.28643
地说道	-9.2865
落云宗	-9.28854
闪过	-9.28888
级	-9.28988
嗯	-9.29192
只见	-9.2926
飞去	-9.29291
的感觉	-9.2932
隐匿	-9.29418
话语	-9.29444
想必	-9.29511
发现了	-9.29515
体形	-9.29727
完	-9.29753
回去	-9.29765
也同样	-9.29847
一齐	-9.29892
有些意外	-9.29901
我和	-9.29933
面露	-9.2998
面孔	-9.30009
吃	-9.30087
其它	-9.30187
特殊	-9.3019
灵光一闪	-9.30269
万一	-9.3043
你的	-9.30488
此话	-9.30509
自然也	-9.30509
阵法	-9.30532
大手	-9.30653
细	-9.30707
环	-9.30735
一步	-9.30746
结丹	-9.30797
忙	-9.30921
妖物	-9.30951
在原地	-9.31002
眼前的	-9.3117
都有	-9.31247
决定	-9.31268
几种	-9.31274
暗自	-9.31355
现出了	-9.31376
原	-9.31484
帮	-9.31557
活	-9.31594
失	-9.31731
小妹	-9.31737
▁就在这时	-9.31804
城	-9.31839
此处	-9.31848
普通的	-9.31913
自然不会	-9.31959
▁第六	-9.3196
平	-9.31974
大量	-9.32084
另有	-9.32109
星宫	-9.32221
二位道友	-9.32249
一下将	-9.32355
机会	-9.32401
美妇	-9.32474
这点	-9.32477
大长老	-9.3304
力量	-9.33104
再加上	-9.33178
这只	-9.33209
二者	-9.33224
洞穿	-9.33255
辟邪神雷	-9.33261
嘴角	-9.33342
知	-9.33428
族中	-9.33501
散	-9.33594
们	-9.3368
对方的	-9.33789
幻化出	-9.33832
加	-9.33842
出来的	-9.33854
一个盘旋后	-9.33895
微微一笑	-9.33912
犹如	-9.34029
摇摇头	-9.34201
进入了	-9.34231
美	-9.34297
抓	-9.34367
角	-9.34688
高大	-9.34766
决	-9.34838
法	-9.349
足够	-9.34907
骤然间	-9.34957
不见了	-9.34993
传音	-9.35017
石门	-9.35032
不停的	-9.35124
古怪	-9.35206
讲	-9.35214
突破	-9.35309
第一	-9.35343
群	-9.35365
作	-9.35373
精	-9.35407
七八	-9.35431
件	-9.35497
疯狂	-9.35554
几声	-9.35706
不可	-9.35788
在那里	-9.35856
几名	-9.35869
这名	-9.35885
左右	-9.35955
条件	-9.35963
可怕	-9.36106
如此一来	-9.36168
指	-9.36261
煞气	-9.3639
全部	-9.36412
玄骨	-9.36686
具有	-9.36798
略微	-9.36798
了过来	-9.368
丹	-9.36802
苦	-9.36872
身影	-9.36923
上古	-9.37073
老道	-9.37148
▁此女	-9.37186
身上的	-9.37207
就到了	-9.37209
人界	-9.3721
心神	-9.3726
研究	-9.37279
问了一句	-9.3738
紧	-9.37387
好好	-9.3745
十几	-9.37563
这二人	-9.37572
神秘	-9.37604
巨兽	-9.37659
那种	-9.37666
让我	-9.37731
尸体	-9.37889
慢慢	-9.37914
乌	-9.37958
照	-9.38141
拍	-9.38154
妖族	-9.38194
▁通天灵宝	-9.38239
冷	-9.38314
一旁的	-9.3833
斩	-9.38352
元婴修士	-9.38375
拍卖	-9.38406
而开	-9.38454
噗	-9.38461
黄枫谷	-9.38488
多出	-9.38549
精血	-9.3869
蛇	-9.38695
大衍神君	-9.38793
断	-9.38797
区域	-9.3884
切	-9.38931
化为一团	-9.3897
关系	-9.39026
波动	-9.39113
包裹	-9.39141
对面的	-9.39185
类	-9.39223
雾	-9.39286
一挥	-9.39327
场	-9.39362
之外	-9.3947
服用	-9.39477
毛	-9.39498
战甲	-9.39507
骇然	-9.39664
就能	-9.398
冲着	-9.39978
平静	-9.39988
师妹	-9.40009
了解	-9.40042
根	-9.40091
▁此刻	-9.40184
闭关	-9.40215
干	-9.40268
消失不见	-9.4029
灵根	-9.40297
一看	-9.40297
一半	-9.40323
道士	-9.4033
不久	-9.40386
那么	-9.40459
木青	-9.40522
眼珠	-9.40539
岛	-9.40556
前面	-9.40564
到底	-9.40746
及	-9.40758
的宝物	-9.40759
:	-9.40823
刺目	-9.40856
了过去	-9.40893
了吧	-9.40948
从里面	-9.41015
虫	-9.41088
天南	-9.41151
就先	-9.41194
全身	-9.412
屋子	-9.41272
不太	-9.41333
地下	-9.41394
前边	-9.41506
但在	-9.41544
甲士	-9.41585
二女	-9.41587
单手一掐诀	-9.4159
坊市	-9.41595
层	-9.41608
考虑	-9.4169
其中的	-9.41699
只不过	-9.41865
如果	-9.41945
唯一	-9.41998
灵族	-9.42189
模糊	-9.42221
应	-9.42272
谈	-9.42299
条	-9.42336
双	-9.42338
两声	-9.42402
诧异	-9.42477
恢复了	-9.42483
其他修士	-9.42497
花费	-9.42596
见韩立	-9.42844
望向	-9.42989
人就	-9.43012
以为	-9.43096
操纵	-9.43162
非	-9.43174
消耗	-9.43217
最好	-9.43289
盘	-9.4331
说什么	-9.43359
冷冷	-9.43402
绝不会	-9.43427
许多	-9.43463
一凝	-9.43485
影响	-9.43491
不由得	-9.43502
冷笑	-9.43557
回来	-9.43637
作为	-9.43683
奔	-9.43743
走出	-9.43832
这边	-9.43849
一连	-9.43936
可不是	-9.4395
跳	-9.43951
说出	-9.43971
当时	-9.43994
总	-9.44002
露	-9.44016
发出了	-9.44233
一闪即逝的	-9.44245
处理	-9.44343
了不少	-9.44365
飞车	-9.44392
第二	-9.44409
拿出	-9.44515
之内	-9.44516
一见韩立	-9.44618
就可以	-9.44679
四下	-9.44691
灭	-9.44694
心中一凛	-9.44738
变成了	-9.44742
蛮胡子	-9.4477
该	-9.44856
木族	-9.44863
极其	-9.44917
晃动	-9.44944
性命	-9.45086
次	-9.45092
差点	-9.45117
进行	-9.45146
凭	-9.45198
玉盒	-9.45211
楼	-9.45356
▁随后	-9.45404
修炼的	-9.45435
留	-9.4545
毫不客气的	-9.45519
虚	-9.45529
这话	-9.45533
下了	-9.45589
大片	-9.45619
赫然是	-9.45686
青元子	-9.45747
此魔	-9.45895
消失不见了	-9.45901
就是了	-9.46004
发生	-9.46044
感应	-9.46093
珍稀	-9.46113
平常	-9.46116
噗嗤	-9.46148
块	-9.46158
均	-9.46198
结丹修士	-9.46207
激发	-9.46213
遇到	-9.4627
巨力	-9.46281
不多	-9.46322
魔道	-9.4643
还在	-9.46456
硬生生	-9.46469
他人	-9.46536
敌	-9.46547
脸色一沉	-9.4659
不行	-9.46669
罩	-9.46731
韩师弟	-9.46747
青丝	-9.46756
真灵	-9.46778
年轻	-9.46957
选	-9.47056
的弟子	-9.47185
结丹期修士	-9.47272
和那	-9.47318
心思	-9.47325
和他	-9.47425
交织	-9.47498
若不是	-9.47565
沉	-9.4758
闻	-9.4763
对其	-9.47689
反应	-9.47728
侥幸	-9.4773
落到了	-9.47767
头上	-9.47799
靠	-9.47894
的小	-9.47914
小剑	-9.47967
似	-9.47971
波动一起	-9.47979
海外	-9.47982
都会	-9.48092
不愿	-9.48096
一段时间	-9.4813
莫非	-9.48228
师叔	-9.48241
同样的	-9.48248
小兽	-9.48324
一顿	-9.48385
回到	-9.48435
足足	-9.48441
身为	-9.48686
柳水儿	-9.48737
灵虫	-9.48737
认识	-9.48798
救	-9.48881
套	-9.48905
一开始	-9.48911
看了看	-9.48962
大放	-9.49034
斗	-9.4905
不如	-9.4908
血雾	-9.49148
才行	-9.49149
随意	-9.49168
▁片刻后	-9.49214
一路	-9.49241
坐在	-9.49248
石昆	-9.49316
鬼灵门	-9.49331
之法	-9.49337
真正的	-9.49372
狰狞	-9.49381
躯体	-9.49487
但却	-9.49581
算是	-9.49643
亲	-9.49652
狂涌而出	-9.49665
的禁制	-9.49666
进来	-9.49685
几下	-9.49697
尽管	-9.49745
极为	-9.49752
说话	-9.49918
以上	-9.49944
错	-9.5005
城中	-9.50051
怪物	-9.50083
替	-9.50086
加以	-9.50158
一族	-9.50215
才可	-9.50272
响	-9.50364
血红	-9.50409
老妪	-9.50438
一间	-9.50506
十余丈	-9.50675
满意	-9.50703
的举动	-9.50711
界	-9.50737
鱼	-9.50752
古宝	-9.50791
寻找	-9.50882
言语	-9.50895
向前	-9.50922
开来	-9.50981
重要	-9.50992
状	-9.50998
在此地	-9.51023
这一切	-9.51061
整	-9.51094
▁韩立心中	-9.51107
剑阵	-9.51182
步	-9.51226
一般无二	-9.51459
一一	-9.51474
兴奋	-9.51504
魔尊	-9.51522
疑惑	-9.51536
草	-9.51582
报	-9.51803
四人	-9.51844
成为	-9.51921
皮	-9.52007
”“	-9.52132
脚	-9.5215
寒骊上人	-9.52168
一侧	-9.52281
但随即	-9.52325
商量	-9.52337
▁与此同时	-9.52379
刃	-9.52393
看了一眼	-9.52418
银发老者	-9.52518
形成	-9.52518
本门	-9.52575
都无法	-9.52583
追杀	-9.52627
蓝光	-9.52627
之气	-9.52642
在一旁	-9.52814
碧绿	-9.52851
几位道友	-9.52923
小鼎	-9.52949
车	-9.52978
寒光	-9.53144
自从	-9.53232
火鸟	-9.53271
告诉	-9.53277
翻	-9.53404
作用	-9.53424
入口	-9.53454
回到了	-9.5346
外加	-9.53496
图	-9.53504
虚空一抓	-9.53556
元气	-9.53606
觉	-9.53654
一场	-9.53762
爆裂开来	-9.53833
被人	-9.53867
夫人	-9.53877
逃	-9.53894
本座	-9.53945
万年	-9.53955
袖袍一抖	-9.53962
男女	-9.53984
这样的	-9.54059
各处	-9.54086
▁这位	-9.54133
沉吟	-9.54176
先是	-9.54234
绿光	-9.54249
机缘	-9.54285
可就	-9.54332
满是	-9.54438
便	-9.54452
盘旋	-9.54466
寒气	-9.54517
离去	-9.54542
上次	-9.5455
童子	-9.54647
扇	-9.54671
青光一闪	-9.54687
胜	-9.54726
感应到	-9.54745
法相	-9.54818
而过	-9.54823
家族	-9.54905
第二元婴	-9.55035
结	-9.55051
足	-9.55075
困住	-9.55151
天鹏族	-9.55159
借	-9.55166
掉了	-9.55276
效果	-9.55401
女童	-9.55406
两种	-9.55457
向韩立	-9.55478
脑中	-9.55525
多谢	-9.55565
数十丈	-9.55582
毫不迟疑的	-9.55634
岛上	-9.55645
才会	-9.55691
下一刻	-9.55714
吸	-9.55764
拿出来	-9.55777
神色一动	-9.55814
约	-9.55823
百余丈	-9.55833
并在	-9.55865
给你	-9.55868
藏	-9.55873
▁但就在这时	-9.55896
简单	-9.55909
蟹道人	-9.55997
广场	-9.55999
韩立就	-9.56076
红色	-9.56134
取出	-9.56151
动作	-9.56187
根本没有	-9.56194
聚集	-9.56285
苦笑	-9.56358
大部分	-9.56374
就有	-9.5639
真要	-9.56416
嗖	-9.56433
金弧	-9.56458
了大半	-9.56481
某种	-9.56497
了一个	-9.56582
怀疑	-9.56586
背	-9.566
忌惮	-9.56724
一手	-9.56736
预料	-9.56769
停了下来	-9.56792
大门	-9.56795
魏无涯	-9.56812
顺利	-9.56815
脸色大变	-9.56869
冒	-9.56913
得到的	-9.56963
巨舟	-9.56994
区区	-9.57027
溃散	-9.57063
黑光	-9.5718
说了	-9.57242
解	-9.57252
回复	-9.57275
助	-9.57299
要是	-9.5731
原本就	-9.57355
黑影	-9.57355
天地	-9.57475
隐	-9.575
干脆	-9.57546
冲天而起	-9.57554
激射而来	-9.57564
边缘处	-9.57566
对他	-9.57567
身穿	-9.57569
庞大	-9.57575
阴沉	-9.57599
不定	-9.57605
密室	-9.57671
上前	-9.57712
▁就在	-9.57817
看到了	-9.57919
淡	-9.5792
巨蟒	-9.57943
沙	-9.57954
凝重	-9.57978
多出了	-9.58123
下意识的	-9.58292
灵草	-9.58377
一旁	-9.58399
的冲	-9.58425
储物袋	-9.58468
古	-9.58504
真有	-9.58504
太多	-9.58593
冰寒	-9.58681
淡淡的说道	-9.58808
▁这一次	-9.58909
阵阵	-9.58947
爆裂	-9.58996
岛屿	-9.59081
求	-9.59202
的好	-9.59231
实	-9.59267
整个人	-9.59364
极阴祖师	-9.59414
啼魂兽	-9.59415
两者	-9.59451
护罩	-9.59482
接近	-9.59494
具体	-9.59532
殿	-9.5958
鳞片	-9.59669
安	-9.59671
住处	-9.59744
认为	-9.5977
颇为	-9.59803
用来	-9.59803
碰到	-9.59832
远处的	-9.59923
一抓	-9.59963
了一声	-9.60007
只好	-9.6001
装	-9.60021
的向	-9.60042
知道了	-9.60174
也能	-9.60195
师	-9.60267
光阵	-9.60442
单	-9.60453
乳白色	-9.60538
靠近	-9.60555
狂风	-9.60649
走出了	-9.60673
雾海	-9.60673
数道	-9.60816
破空	-9.60823
迅速	-9.60836
异样	-9.60909
开启	-9.60919
虎	-9.60942
现	-9.6099
炼	-9.61034
轻易的	-9.61059
鼎	-9.61098
师姐	-9.61101
粗大	-9.61128
感觉	-9.61151
魔功	-9.612
随	-9.61221
异族人	-9.61302
留在	-9.61417
的一切	-9.61468
非同小可	-9.61543
不大	-9.61619
周身	-9.61689
灵宝	-9.61747
这些东西	-9.62021
就一下	-9.62022
的神色	-9.62058
但现在	-9.62059
在其中	-9.62065
贵	-9.62088
的一些	-9.62093
换取	-9.62094
互相	-9.6212
看出	-9.62132
势	-9.62189
差不多	-9.62197
长的	-9.62314
的消息	-9.62338
站起身来	-9.62452
合体	-9.62482
猛	-9.62501
原来如此	-9.62644
修仙界	-9.62746
是一名	-9.62757
灰	-9.62816
一沉	-9.62841
元婴期	-9.62885
一拍	-9.62915
远超	-9.63031
整座	-9.63043
黄光	-9.6307
对了	-9.63157
毫无	-9.63175
射	-9.63263
这几人	-9.63301
中不见了踪影	-9.63456
的言语	-9.6349
高空	-9.63491
解释	-9.63502
大神通	-9.6357
元婴期修士	-9.63765
短	-9.6381
无声无息的	-9.6384
凶	-9.63862
我会	-9.63875
肌肤	-9.64012
威胁	-9.64013
并不是	-9.64019
接触	-9.64035
事先	-9.64057
冷笑一声	-9.64092
圣岛	-9.64177
电光	-9.64223
圆	-9.64246
跟着	-9.64336
▁看来	-9.64381
谨慎	-9.64406
若隐若现	-9.64406
百年	-9.64441
恭敬的	-9.64442
全力	-9.64488
爆发	-9.64574
感兴趣	-9.64623
秘	-9.64737
低首	-9.64813
十余	-9.64822
坠魔谷	-9.64836
双翅	-9.64925
圣祖	-9.64928
眉	-9.64957
一定要	-9.65016
一抬手	-9.65039
▁显然	-9.65082
空中的	-9.65106
叶家	-9.65162
银翅夜叉	-9.65198
敖啸老祖	-9.65212
波	-9.65214
吞	-9.65219
▁他们	-9.65238
降临	-9.65249
硬	-9.6525
转眼间就	-9.6538
也算	-9.65384
观	-9.65432
黑芒	-9.65485
赤	-9.65596
深入	-9.65619
招呼	-9.65677
数十	-9.6569
原来是	-9.65706
让他们	-9.65833
的攻击	-9.65858
情况	-9.65959
轻松	-9.65967
隐秘	-9.65983
密密麻麻	-9.66004
向之礼	-9.66005
门下	-9.66055
阻挡	-9.661
个不停	-9.66136
一向	-9.66138
此行	-9.66149
将此	-9.66199
起身	-9.66215
利	-9.66252
范围	-9.66345
刚一	-9.66392
吕洛	-9.66398
的缘故	-9.664
也没	-9.66427
丝	-9.66513
妖丹	-9.66525
不了	-9.66556
喜	-9.66562
来历	-9.66625
▁第四	-9.66626
嘿嘿一笑	-9.66628
他就	-9.66657
一转	-9.66705
度	-9.66739
一般的	-9.66771
翠绿	-9.66778
狂闪	-9.66793
真仙降世	-9.66801
探	-9.66863
散修	-9.66913
▁现在	-9.6692
一变	-9.66936
一切都	-9.66957
仅仅	-9.66967
隐隐有	-9.67002
品	-9.67055
自信	-9.67084
文	-9.67091
祭坛	-9.67113
谷	-9.67237
脸孔	-9.6726
不出	-9.67289
人手	-9.67374
消	-9.67389
建筑	-9.6739
冷冷的	-9.67404
被韩立	-9.67416
回答	-9.67424
不假	-9.67457
这件	-9.67464
几个闪动后	-9.6747
四名	-9.67475
蟒	-9.6753
一飞而出	-9.67605
祭出	-9.67609
羽衣少女	-9.67612
方圆	-9.67624
充满了	-9.67663
几次	-9.67688
这让韩立	-9.67742
的那些	-9.67774
说出了	-9.67804
两位道友	-9.67846
不得	-9.67883
金光一闪	-9.67904
一缕	-9.67943
剑气	-9.67959
低声	-9.67967
费	-9.68
之心	-9.68024
得到了	-9.68106
二位	-9.68122
愕然	-9.68242
盾	-9.68246
介绍	-9.68304
刺	-9.68317
在他	-9.6832
从未	-9.68335
身边	-9.6836
瓶颈	-9.68426
依仗	-9.68431
找到了	-9.68438
慢	-9.68491
不觉	-9.68517
筑基期修士	-9.68551
据说	-9.68603
凝聚	-9.68611
瓶	-9.68611
不信	-9.68619
马上就	-9.68641
的机会	-9.68687
底	-9.68707
宫殿	-9.68718
大感	-9.68782
身形一动	-9.68835
让你	-9.6885
飞行	-9.68887
韩	-9.68912
完成	-9.68934
呼啸	-9.68956
陌生	-9.68965
目标	-9.6897
多了	-9.68975
遁	-9.68984
掩饰	-9.68997
一团团	-9.69032
一扇	-9.69073
嘴	-9.6911
激射	-9.69167
怒	-9.69193
白瑶怡	-9.69255
似的	-9.69288
▁而韩立	-9.69328
只觉	-9.69409
这么说	-9.69487
不小的	-9.69499
三章	-9.69502
办	-9.69625
夜	-9.69649
砸	-9.69655
两手一掐诀	-9.69681
丈许	-9.697
还会	-9.69748
从空中	-9.69748
足下	-9.69775
别人	-9.69803
抬手	-9.6987
而走	-9.69874
传来了	-9.69906
三色	-9.69928
未等	-9.6999
六足	-9.70052
朱果儿	-9.70086
玄	-9.70234
回头	-9.70266
一日	-9.70312
逼	-9.70339
似乎也	-9.70351
这让	-9.70388
异	-9.70482
惊喜	-9.70483
过的	-9.70507
交谈	-9.70513
是个	-9.70576
风起	-9.70578
常	-9.70615
部	-9.70645
高兴	-9.70669
许	-9.70674
惊讶	-9.70688
筑基期	-9.70806
给他	-9.70872
袍	-9.70888
个个	-9.70901
公子	-9.7093
老怪	-9.70945
不慌不忙的	-9.70946
望了望	-9.70951
肉	-9.70989
也不知	-9.71011
下方的	-9.71095
扫了	-9.7112
注意	-9.71129
一干	-9.71138
仙界	-9.71249
击在了	-9.71302
无人	-9.71341
抬首	-9.71354
停	-9.71356
怪兽	-9.71392
韩立心中	-9.71479
喝	-9.71516
改	-9.71664
的言道	-9.71712
魔物	-9.71741
祭炼	-9.71793
最近	-9.71808
联系	-9.71811
峰	-9.71822
摆	-9.71888
后来	-9.71893
弱	-9.71908
站	-9.71952
韩立也	-9.72149
震惊	-9.72154
金芒	-9.72219
身下	-9.72241
片刻	-9.72308
千年	-9.72394
闪烁	-9.72401
低阶	-9.72413
密	-9.72455
葫芦	-9.72623
眉宇间	-9.72631
宫装女子	-9.72637
极阴	-9.72648
一斩	-9.72652
流转	-9.7271
叶	-9.72779
一样的	-9.72788
气势汹汹的	-9.72895
一脸的	-9.72896
鸟	-9.72904
大起	-9.7294
阳	-9.72941
一接触	-9.72959
也不禁	-9.7298
▁而这时	-9.72988
巨型	-9.7301
▁那些	-9.73011
之际	-9.73069
诸位道友	-9.73227
印	-9.73232
飞快的	-9.73274
劈	-9.73308
其内	-9.73333
比较	-9.73369
顶阶	-9.73376
应付	-9.73386
防御	-9.73459
一敛	-9.73475
妍丽	-9.73484
越国	-9.73491
故意	-9.73492
▁故而	-9.73612
两件	-9.73645
拉	-9.73662
圣	-9.73662
念	-9.73722
▁随之	-9.73728
和我	-9.73736
相貌	-9.73816
怪人	-9.7382
辅助	-9.73893
遁术	-9.73904
转动	-9.73919
颗	-9.73958
口中念念有词	-9.73967
犹豫	-9.74099
什么东西	-9.74109
化为一道青虹	-9.7414
如此的话	-9.74189
玄妙	-9.74249
根本不	-9.74279
万分	-9.74322
询问	-9.74335
片	-9.74354
类似	-9.74465
和其	-9.74563
大家	-9.74574
那件	-9.74599
她们	-9.7463
网	-9.74714
顶多	-9.7476
▁正是	-9.74781
元磁神光	-9.74789
化形	-9.74812
飞刀	-9.74831
抽	-9.7485
光点	-9.74855
被其	-9.74859
面带	-9.74896
另一个	-9.74915
阵旗	-9.74951
理	-9.74956
合体修士	-9.75017
三只	-9.75022
期	-9.75037
是什么	-9.7508
鬼物	-9.75115
肯	-9.75166
万天明	-9.75227
偷袭	-9.75228
中年修士	-9.75261
再无任何	-9.7529
手心中	-9.75438
好奇	-9.75475
守	-9.75485
不时	-9.75493
练	-9.75611
炼器	-9.75627
吩咐道	-9.75667
巨汉	-9.7567
将这	-9.75687
一二的	-9.75708
不可思议	-9.75711
一扬	-9.7572
竟将	-9.7573
球	-9.75731
的事	-9.75766
我就	-9.75818
双方	-9.75859
数倍	-9.75893
丝毫没有	-9.75932
叹了一口气	-9.75942
静静的	-9.76009
忽	-9.76076
暗兽	-9.76107
海大少	-9.7611
脸色一变	-9.76171
爆发出	-9.76268
不断	-9.76283
小心的	-9.763
▁转眼间	-9.76339
如此做	-9.76489
明尊	-9.76563
汉子	-9.76584
感	-9.76619
兴趣	-9.76628
亮	-9.76647
某处	-9.76689
容易	-9.76956
怕	-9.7696
音	-9.76984
座	-9.76999
时候	-9.77005
说完	-9.77057
过于	-9.77084
大都	-9.77158
此次	-9.77205
卫士	-9.7722
本族	-9.77226
炼丹	-9.77261
越发	-9.77331
打量了	-9.77369
一散	-9.7742
人妖两族	-9.77448
口诀	-9.7748
禁	-9.77511
不动	-9.77521
的同时	-9.77554
一趟	-9.77561
眼睛	-9.77581
口中发出	-9.77582
五六	-9.77623
山谷	-9.77639
真能	-9.77667
放弃	-9.77693
▁同一时间	-9.77771
大厅中	-9.77894
小极宫	-9.779
位置	-9.77949
百丈	-9.77949
阴气	-9.77973
在身	-9.78002
走到	-9.78148
另一只	-9.78158
诸位	-9.7817
那头	-9.78188
了一句	-9.78218
假	-9.78277
灵丹	-9.78291
所过之处	-9.78353
今日	-9.78355
银焰	-9.78374
听说过	-9.78385
隐瞒	-9.78406
不必	-9.78501
记	-9.78504
也知道	-9.78534
都未	-9.78553
大声	-9.78639
复杂	-9.78639
抓住	-9.78642
临时	-9.78793
完毕	-9.78807
▁若是	-9.78811
几句	-9.78882
生死	-9.78905
厉飞雨	-9.79057
过去了	-9.79166
不在	-9.79176
转身	-9.79177
竟在	-9.79185
高的	-9.79225
和其他	-9.79244
要么	-9.7927
增加	-9.79271
人形傀儡	-9.79291
呼	-9.79305
价值	-9.79311
攻	-9.79355
魔魂	-9.79364
也不可能	-9.79394
出现的	-9.79459
解决	-9.79626
▁但韩立	-9.79635
金身	-9.79697
青龙上人	-9.79722
闪动着	-9.79741
交给	-9.79752
论	-9.79769
光晕	-9.79829
衣	-9.79835
精魂	-9.80005
弹	-9.8014
给韩立	-9.8015
雪白	-9.8016
很好	-9.80175
一咬牙	-9.80184
又怎会	-9.80195
怪不得	-9.80197
无声的	-9.80213
对准	-9.80235
盛	-9.80313
此言	-9.80333
没有丝毫	-9.8034
喷	-9.8035
凤	-9.8043
何必	-9.80465
角蚩族	-9.80486
此妖	-9.80536
确定	-9.80547
目光在	-9.80553
做出	-9.80556
斩杀	-9.80589
弄	-9.806
忽然间	-9.80606
一闪后	-9.80614
任务	-9.8064
耽搁	-9.80644
畏惧	-9.80646
他可	-9.80689
大的	-9.807
手脚	-9.80765
破除	-9.8087
明明	-9.8094
正想	-9.80964
这可	-9.80965
闪动不已	-9.8099
大成	-9.80997
咬	-9.81011
闪	-9.81014
年纪	-9.81073
一颤	-9.81087
缓缓的说道	-9.81104
除非	-9.81114
弹射而出	-9.81123
股	-9.81124
▁韩立见此情形	-9.81154
有所	-9.81167
爆	-9.81201
镇定	-9.81253
小半	-9.81296
手下	-9.813
▁可	-9.81309
妖修	-9.8131
拳头	-9.81327
暗中	-9.81405
短短	-9.81482
待	-9.81507
插	-9.81508
漫天	-9.81584
所有人	-9.81608
白衣女子	-9.81621
也在	-9.8164
太大	-9.81667
制	-9.81716
本人	-9.8178
人族修士	-9.81829
使	-9.81852
的很	-9.81882
三四	-9.81976
物品	-9.81985
所谓的	-9.82027
巨响	-9.82037
阶	-9.82038
鼓	-9.82047
存	-9.82054
暴	-9.82076
路上	-9.82083
玉匣	-9.82114
缩小	-9.8213
把握	-9.8214
▁第五	-9.82185
▁第三	-9.82207
用神识	-9.82295
抢	-9.82402
厚	-9.8242
学	-9.8246
法阵中	-9.8249
眼见	-9.82524
金悦	-9.82528
地渊	-9.82542
碎	-9.82626
不说	-9.82707
没有任何	-9.82741
之身	-9.82748
幻化	-9.82763
又是	-9.82796
不加思索的	-9.82806
还不	-9.8284
相助	-9.82886
安心	-9.82935
雪	-9.82948
螟虫之母	-9.82988
护身	-9.83039
一喷而出	-9.83047
方面	-9.83051
巨山	-9.83191
耳中	-9.83196
熟悉	-9.83217
扭曲	-9.83236
将自己	-9.83284
松	-9.8332
的问了一句	-9.83329
骷髅头	-9.83338
缩	-9.83389
碧	-9.83395
没有问题	-9.83406
吼声	-9.8353
无形	-9.83531
这也是	-9.83591
竟然是	-9.83649
竹	-9.83778
面无表情	-9.83892
血袍人	-9.83931
晶石	-9.83944
僧人	-9.83964
喜色	-9.83973
天边	-9.84125
▁韩立听了	-9.84145
▁话音刚落	-9.84188
不足	-9.84209
推	-9.84328
▁随即	-9.84374
那就	-9.84375
护	-9.84377
的可怕	-9.8441
玲珑	-9.84425
▁第十一	-9.84433
出发	-9.84454
巨狼	-9.84484
果	-9.84543
很清楚	-9.84566
漩涡	-9.84601
如此一说	-9.84603
下面的	-9.84625
说了一句	-9.84671
一声冷哼	-9.84722
散发着	-9.84777
牛	-9.84778
的神情	-9.84787
爱	-9.84795
布	-9.84851
雷电	-9.84921
正式	-9.84921
狂涨	-9.84927
资质	-9.84948
巨刃	-9.84954
异色	-9.84958
体积	-9.84963
在灵界	-9.84968
算了	-9.85082
着什么	-9.85197
▁想到这里	-9.85205
世	-9.85337
梦	-9.85367
身后的	-9.85404
陇家	-9.8541
裂缝	-9.8547
一角	-9.85471
居	-9.85474
突然间	-9.85506
盘坐	-9.85571
符宝	-9.85588
趁	-9.85664
爪	-9.85726
禁地	-9.85767
目光闪动	-9.85767
买	-9.85861
全是	-9.85861
客	-9.85867
冒险	-9.85889
有此	-9.85944
大乘存在	-9.85947
乱星海	-9.85975
几件	-9.86041
招	-9.86092
肩头	-9.86287
茶	-9.86288
对自己	-9.86363
西	-9.86363
一具	-9.86365
玄天之宝	-9.86374
孙二狗	-9.86375
可比的	-9.86442
密室中	-9.86487
了下去	-9.86589
一催	-9.86611
可见	-9.86614
似乎对	-9.8668
难道是	-9.86687
尖	-9.86707
炼气期	-9.86713
重重	-9.86839
阴罗宗	-9.8684
白光一闪	-9.86848
噗噗	-9.86882
同意	-9.86901
顶	-9.86911
之久	-9.86971
筑基丹	-9.86984
的大	-9.86992
合体期	-9.87007
后面的	-9.87071
泛起	-9.87093
袖子一抖	-9.87094
开口了	-9.87095
伸手	-9.87121
身旁	-9.87162
了一遍	-9.8719
就化为	-9.8726
祭	-9.87294
下边	-9.87338
韩立在	-9.87342
店铺	-9.87364
城市	-9.8738
自爆	-9.87388
浮现在了	-9.87433
缓缓说道	-9.87465
邪	-9.87509
的功法	-9.87539
一点指	-9.87561
不到	-9.87581
青虹	-9.87595
扑	-9.87622
放在	-9.87679
▁然后	-9.87684
难以	-9.87691
绝对是	-9.87761
轰隆隆的	-9.87804
师侄	-9.87856
几乎同一时间	-9.87872
精通	-9.87877
中年男子	-9.87897
震一方	-9.87915
有一些	-9.87948
代	-9.88004
变身	-9.88048
好处	-9.88124
有可能	-9.88181
幻化成	-9.88197
瞬移	-9.88245
对这	-9.88261
而成	-9.88296
空间裂缝	-9.88315
起码	-9.88329
争	-9.8833
独	-9.88354
派人	-9.88355
家伙	-9.88363
相关	-9.88407
慕兰人	-9.88414
颤抖	-9.88419
管	-9.88428
小岛	-9.88456
树	-9.88457
轮	-9.88471
石壁	-9.88477
一闪之下	-9.88484
看不出	-9.88527
屋内	-9.88536
头顶处	-9.88538
何种	-9.88577
据	-9.88612
先后	-9.88675
转首	-9.88712
目的	-9.88781
意思	-9.88795
卖	-9.88796
多久	-9.88839
将这些	-9.88842
而在	-9.88859
选择	-9.88863
扔	-9.88866
单凭	-9.88873
入口处	-9.88973
硬生生的	-9.89001
向下	-9.89013
还没有	-9.89107
越来越	-9.89113
天劫	-9.89132
各色	-9.89187
李	-9.89252
样	-9.89303
一扫后	-9.89321
剩下的	-9.89327
注入	-9.89358
等到	-9.89359
正常	-9.894
这就是	-9.8945
归	-9.89452
数丈	-9.8947
数百丈	-9.89538
许家	-9.8956
的方法	-9.89564
星	-9.89581
威	-9.89591
境	-9.89716
要知道	-9.89732
悬浮在	-9.89755
通天灵宝	-9.89783
紫光	-9.89794
蓝芒	-9.89858
静静	-9.89884
诸多	-9.89889
阵盘	-9.89929
微笑	-9.89933
潜入	-9.89934
解除	-9.89944
从此	-9.90004
厉	-9.90007
郁闷	-9.90044
聚	-9.90054
的事情了	-9.90075
一震	-9.90084
不住	-9.90105
一股股	-9.90127
冲空中	-9.90172
机	-9.90216
国	-9.90286
一根根	-9.90343
意见	-9.90347
收获	-9.90374
魔道入侵	-9.9039
说些什么	-9.90401
爆发而出	-9.90415
先是一怔	-9.90426
对我	-9.90476
飞到了	-9.90482
光华	-9.90492
在离	-9.90496
结丹期	-9.9068
目光一扫	-9.90689
这座	-9.90711
向下方	-9.90791
药园	-9.90827
幡	-9.90838
寻	-9.90873
负责	-9.90889
坐下	-9.90889
一般无二的	-9.9092
始终	-9.90925
灵压	-9.90986
一战	-9.91018
在一起	-9.91226
打量	-9.91241
静	-9.9125
嫣然一笑	-9.91301
再多	-9.91336
黑袍青年	-9.91344
灵光闪动	-9.91347
提醒	-9.91368
府	-9.91375
视若无睹	-9.91414
闪现而出	-9.91423
光焰	-9.91427
十指	-9.9145
老怪物	-9.91548
大变	-9.91636
收起	-9.91659
惊疑	-9.91678
不要说	-9.91691
两颗	-9.91696
一抛	-9.91754
光芒一闪	-9.91765
还想	-9.91882
传闻中的	-9.91929
严氏	-9.91934
特意	-9.91938
认	-9.91987
韩立身上	-9.92017
元刹	-9.92029
灭掉	-9.92085
顶部	-9.92089
巨鼎	-9.92138
三位	-9.92197
安排	-9.92223
挑	-9.92258
一招	-9.92297
扎	-9.92298
韩立才	-9.92303
投	-9.92352
着实	-9.92417
锤	-9.92421
尺	-9.92439
兄弟	-9.92464
配合	-9.92466
分身	-9.9251
镇	-9.9251
法盘	-9.92521
纤细	-9.92543
某个	-9.92547
从容	-9.92548
低头	-9.92556
轻笑	-9.92565
能力	-9.92573
点下头	-9.92639
十几道	-9.9265
焰	-9.9265
的诡异	-9.92662
看清楚	-9.92671
破开	-9.92687
久	-9.92701
数尺	-9.92735
柱	-9.92796
这东西	-9.92859
所化的	-9.92877
鬼头	-9.92885
另一名	-9.92915
了出去	-9.92917
赶	-9.92919
滴溜溜一转下	-9.92928
失去了	-9.92933
散发出	-9.92955
深不可测	-9.92976
嗤嗤	-9.92977
大大	-9.92983
实在是	-9.92992
安然	-9.92993
当场	-9.93039
堆	-9.93055
另一只手	-9.93139
两族	-9.93143
造成	-9.93184
大殿中	-9.93184
回了	-9.93201
这片	-9.93248
瓶子	-9.93311
▁名	-9.93365
冰冷	-9.93371
停下	-9.93406
但他	-9.93437
参悟	-9.93502
镜	-9.93531
阁	-9.93653
不妙	-9.93682
看见	-9.93699
只剩下	-9.93708
一只手掌	-9.93744
在里面	-9.93774
数次	-9.93835
▁这一下	-9.93866
残	-9.93916
眼下	-9.94013
大衍诀	-9.94032
器灵子	-9.94053
风险	-9.94055
闪过一丝	-9.94119
此城	-9.94131
数名	-9.94133
防护	-9.94143
拜	-9.94157
小命	-9.94182
高阶修士	-9.94206
迷	-9.94227
惊虹	-9.94245
托	-9.94255
池	-9.94256
灰光	-9.94322
也都	-9.94324
拍卖会	-9.94385
臂	-9.94438
查	-9.94533
落在	-9.94534
凝	-9.94541
恭敬	-9.94545
天上	-9.94549
腰间	-9.94557
队伍	-9.94564
安然无恙	-9.94564
容	-9.94581
强者	-9.94585
干净	-9.94632
一套	-9.94648
宽	-9.9466
火云	-9.94667
特别	-9.9469
克制	-9.94718
圈	-9.94792
一圈	-9.94818
涌	-9.94835
远去	-9.949
一望	-9.94905
堂	-9.94957
了个	-9.94986
洞	-9.95087
探查	-9.95113
设	-9.95139
青濛濛	-9.95206
对我们	-9.95209
伸出	-9.9521
经	-9.95243
吹	-9.95292
▁她	-9.95294
领	-9.95459
味	-9.95556
精纯	-9.95566
几步	-9.9559
船	-9.95617
门内	-9.95619
乾老魔	-9.95639
银芒	-9.95656
就这样	-9.95677
冷哼一声	-9.95686
脱身	-9.95726
的法器	-9.95728
人类	-9.95737
就从	-9.95776
扫了一眼	-9.95787
会有	-9.95791
一抬	-9.95803
美目	-9.95825
那般	-9.95879
不客气的	-9.95979
升起	-9.96034
有些奇怪	-9.96062
肯定是	-9.96127
的材料	-9.96171
盘膝坐下	-9.96178
开了	-9.9618
两团	-9.96255
封	-9.96303
礼	-9.96344
要求	-9.96367
称	-9.96387
得手	-9.9646
修仙	-9.96466
利用	-9.96491
闯	-9.96499
降	-9.96538
▁当即	-9.96576
旁边的	-9.96646
纤纤	-9.9665
石屋	-9.96716
青竹蜂云剑	-9.96719
贫道	-9.96725
一年	-9.96739
面积	-9.96744
沿着	-9.96744
▁可是	-9.96752
倍	-9.96817
收回	-9.96846
飞射	-9.96847
真仙	-9.96885
▁如今	-9.96897
不远处	-9.96967
追上	-9.97083
筑基	-9.97095
木盒	-9.97225
坚	-9.97244
炼体士	-9.97267
害怕	-9.97273
芝仙	-9.97273
巨爪	-9.97302
的法力	-9.97311
白袍老者	-9.97333
限制	-9.97344
出现在了手中	-9.97365
不语	-9.97382
妙	-9.97383
因	-9.974
提前	-9.97441
向四周	-9.97446
另一	-9.97459
都要	-9.97528
的身份	-9.97533
止	-9.97538
这就	-9.97542
不知是	-9.9756
这一	-9.97571
第	-9.97574
了一番	-9.97588
数百年	-9.9762
变异	-9.97719
随手	-9.97723
也一下	-9.97741
热	-9.9777
敌人	-9.97779
偷偷	-9.9782
雷兰	-9.9782
邀请	-9.97827
一行人	-9.97884
招惹	-9.97913
一遍	-9.97949
半截	-9.97965
大事	-9.97981
所说的	-9.97988
形态	-9.98022
外人	-9.98095
一方	-9.98116
一掐诀	-9.98135
的黑色	-9.98142
站立	-9.9823
黯淡	-9.9834
目光一转	-9.98353
一个闪动后	-9.98357
七玄门	-9.98362
王天古	-9.98368
雷球	-9.98386
血魄	-9.98389
哼了一声	-9.98405
前来	-9.98409
凭借	-9.98413
一闪而过	-9.98416
一抱拳	-9.98418
金丝	-9.98482
也可	-9.98556
旗	-9.98568
和我们	-9.98645
这可是	-9.98714
张口	-9.98727
牌	-9.98889
猜测	-9.98926
银弧	-9.98929
单手一翻转	-9.98936
紧张	-9.98943
涌出	-9.9907
之道	-9.9922
躲	-9.99234
十二	-9.99246
另外一名	-9.9932
上方	-9.99351
遁光一起	-9.99356
听闻	-9.99372
爆裂声	-9.99378
命令	-9.99414
误	-9.99416
三层	-9.9944
虚天殿	-9.99483
寿元	-9.99485
守卫	-9.99488
就出现在了	-9.99533
巨虫	-9.99539
飞来	-9.99625
此界	-9.9964
的妖兽	-9.99647
不知何时	-9.99672
体内的	-9.99715
钟	-9.99717
既然这样	-9.99777
害	-9.99855
遇	-9.99865
也算是	-9.99869
城墙	-9.99885
甚	-9.99912
台	-9.99942
这些修士	-9.99945
现身	-9.99999
一朵	-10
罗	-10.0003
徐姓青年	-10.0005
工夫	-10.0005
一愣	-10.0016
指点	-10.002
掐诀	-10.002
遁走	-10.0022
还有些	-10.0023
炼虚	-10.0026
灰白	-10.0028
打坐	-10.0037
听了这话	-10.0042
想法	-10.0045
▁此时	-10.0045
避	-10.0051
困	-10.0054
沙漠	-10.0058
竟有	-10.0061
(	-10.0061
)	-10.0061
反噬	-10.0061
范夫人	-10.0061
在虚空中	-10.0062
高阶魔族	-10.0068
也只是	-10.0069
没多久	-10.0069
双目一眯	-10.007
一定会	-10.007
包	-10.0075
石柱	-10.0075
曾	-10.0078
相似	-10.0081
点点	-10.0084
一松	-10.0087
了几下	-10.0088
服下	-10.0097
▁如此	-10.0097
偶尔	-10.0101
幕	-10.0105
一柄	-10.0105
原地	-10.0107
睁开了双目	-10.0117
州	-10.0117
殿中	-10.0118
恭谨	-10.0118
保证	-10.0118
吓了一跳	-10.0118
提升	-10.0119
又有	-10.0121
黑袍人	-10.0126
附	-10.0127
看出了	-10.0128
连同	-10.013
▁刹那间	-10.0139
林	-10.0141
跟前	-10.0144
浪	-10.0148
融合	-10.0148
的实力	-10.015
价	-10.0152
计	-10.0154
不对	-10.016
说明	-10.0162
持	-10.0169
一现	-10.017
遍	-10.0171
韩立心里	-10.0171
不安	-10.0172
也好	-10.0174
收集	-10.0175
魔猿	-10.0179
同伴	-10.0179
的身影	-10.0183
人形	-10.019
岁	-10.0196
荡	-10.0196
附近虚空	-10.0201
高人	-10.0203
竟仿佛	-10.0205
爆裂而开	-10.021
一阵的	-10.0218
几眼	-10.0221
缓缓的	-10.023
偷	-10.0231
经历	-10.0231
天星城	-10.0234
五行	-10.0237
一批	-10.0242
扫过	-10.0242
液体	-10.0245
几只	-10.0249
检查	-10.0252
飞出了	-10.0262
前去	-10.0263
和你	-10.0269
郑重	-10.0279
睡	-10.0281
叹了口气	-10.0288
奇特	-10.0289
讲述	-10.0291
吸纳	-10.0291
固然	-10.0291
银光仙子	-10.0293
孔洞	-10.0294
身前的	-10.0294
吸引	-10.0296
两日	-10.0301
的灵药	-10.0305
脚步	-10.0307
穿	-10.031
人家	-10.0312
一杆	-10.0314
具	-10.0315
些什么	-10.0317
了开来	-10.0317
鸣	-10.0321
蕴含	-10.0327
掌	-10.0329
透明	-10.033
的老者	-10.0333
说着	-10.0335
原本就是	-10.0338
仅	-10.0339
停留	-10.0345
此鼎	-10.0348
至阳上人	-10.0348
怪异	-10.0349
灵果	-10.035
虽然没有	-10.0351
云城	-10.0357
▁其中	-10.0363
面目	-10.0366
说过	-10.0373
才对	-10.0377
白濛濛	-10.0378
抬起	-10.0379
翅	-10.0383
就行了	-10.0388
心中一惊	-10.0389
走进了	-10.0394
调	-10.0395
保	-10.0395
▁听到	-10.0401
晚	-10.0402
计划	-10.0402
匆匆	-10.0407
满了	-10.0412
尾	-10.0413
底部	-10.0415
血丝	-10.0417
了几句	-10.042
岂不是	-10.043
回首	-10.0433
撕裂	-10.0434
光丝	-10.0444
生出	-10.0445
异宝	-10.0457
手持	-10.0458
这么多	-10.0463
姑娘	-10.0463
奉	-10.0464
偏僻	-10.0466
青芒	-10.0468
一见此景	-10.0468
发觉	-10.047
之体	-10.0473
一招手	-10.0474
惊人的	-10.0475
后期	-10.0475
竟被	-10.0481
修炼者	-10.0482
抱	-10.0483
笑意	-10.0487
闪闪	-10.0489
韩立身形	-10.0498
失望	-10.0499
不可思议的	-10.0502
白骨	-10.0503
也不敢	-10.051
玉瓶	-10.051
姐姐	-10.0525
幻影	-10.0526
此珠	-10.0526
灵智	-10.0526
袖中	-10.0533
息	-10.0538
将韩立	-10.0546
支撑	-10.0546
造	-10.0555
掌握	-10.0556
这一点	-10.056
肃然	-10.056
冷静	-10.0564
多年	-10.0565
横	-10.0565
目光一闪	-10.0569
冲天	-10.0572
是因为	-10.0577
枪	-10.058
风希	-10.0584
幻	-10.0585
过后	-10.0585
玉佩	-10.0585
容颜	-10.0586
酒	-10.059
大增	-10.059
入了	-10.0605
彩	-10.0611
蛟龙	-10.0611
刚才的	-10.0619
雨	-10.0619
一呆	-10.0623
却又	-10.0625
保持	-10.0631
那座	-10.0632
的威力	-10.0633
不止	-10.0637
有一个	-10.0638
蛮荒	-10.0644
向后	-10.0644
李化元	-10.0644
痛苦	-10.0647
▁果然	-10.0647
损失	-10.0647
皱	-10.0647
的丹药	-10.0655
有一丝	-10.0657
飘	-10.0668
效用	-10.0672
到处	-10.0676
眉头	-10.0678
一缩	-10.0679
就连	-10.0685
功夫	-10.0689
很难	-10.069
颇有些	-10.0693
来到了	-10.0696
点了点头	-10.0704
六翼	-10.0705
办法	-10.0705
幻术	-10.0706
艳丽	-10.0707
第一次	-10.0707
修炼到	-10.0715
所言	-10.0717
单独	-10.0718
用神念	-10.072
有机会	-10.0722
随时	-10.0723
尚	-10.0724
声势	-10.0737
放出了	-10.0738
下界	-10.0746
清晰	-10.0746
真元	-10.0756
无数道	-10.076
你二人	-10.0762
目睹	-10.0764
悄悄	-10.0765
慕沛灵	-10.0765
梅凝	-10.0765
老翁	-10.0766
可比	-10.0768
约定	-10.0768
接过	-10.0773
缓	-10.0775
走了过去	-10.078
走到了	-10.0782
不惜	-10.0789
喷出了	-10.079
劫	-10.0797
一闪即逝的没入	-10.08
打量着	-10.0801
比先前	-10.0806
不弱	-10.0811
墙	-10.0812
本城	-10.0814
毫不	-10.0817
知道的	-10.0823
大军	-10.0825
说完这话	-10.0827
得罪	-10.0837
若真	-10.0839
化神修士	-10.0839
一阵翻滚	-10.0843
姓修士	-10.0845
围	-10.0858
系	-10.0859
甚至连	-10.086
兽车	-10.0863
组成	-10.0868
败	-10.0868
望着韩立	-10.0869
判断	-10.087
诀	-10.0872
玉牌	-10.0879
震	-10.0881
一看清楚	-10.0886
引起	-10.0887
趁此机会	-10.0887
寻觅	-10.0888
认得	-10.0893
排	-10.09
元婴后期修士	-10.0901
有办法	-10.0904
在那	-10.0904
一扑	-10.0905
布下	-10.0905
至今	-10.0907
一部分	-10.0907
量	-10.0908
逃走	-10.0908
名字	-10.0913
未曾	-10.093
初	-10.0933
你是	-10.0936
火光	-10.0938
卫	-10.0942
自动	-10.0943
警惕	-10.0944
紧跟	-10.0949
代价	-10.095
长吐了一口气	-10.0951
其上	-10.0951
越宗	-10.0952
紫灵仙子	-10.0953
注视着	-10.0955
的修炼	-10.096
徐徐的	-10.0961
对抗	-10.0963
巨大的	-10.0968
传闻	-10.0976
数日	-10.0977
内的	-10.098
巧	-10.0984
老祖	-10.0988
稍一	-10.099
大小的	-10.0992
一听此话	-10.0992
脚下	-10.0993
的家伙	-10.0994
查看	-10.0996
记载	-10.1004
一喜	-10.1005
一根手指	-10.1006
淹没	-10.1006
纠缠	-10.1007
河	-10.1008
浅	-10.1009
师伯	-10.101
大吃一惊	-10.1011
持续	-10.1011
白发美妇	-10.1012
门派	-10.1015
为首	-10.1018
的惊人	-10.1022
摇了摇头	-10.1022
安全	-10.1024
数个	-10.1027
滴溜溜的	-10.1039
人人	-10.1045
数年	-10.1052
浓	-10.1059
说是	-10.1065
猜	-10.1068
半空中	-10.1068
东	-10.1072
化为了乌有	-10.1074
反对	-10.1077
扫	-10.1077
一亮	-10.1078
养	-10.1082
一晃之下	-10.1082
小的	-10.1083
恶	-10.1095
缭绕	-10.1097
却忽然	-10.1098
众修士	-10.1102
一点点	-10.1103
打开了	-10.1103
数百	-10.1105
交手	-10.1107
袖袍	-10.1111
截	-10.1113
目睹此景	-10.1116
比起	-10.1117
这让他	-10.1118
挂	-10.112
本宗	-10.1122
四只	-10.1124
轻飘飘的	-10.1126
逆星盟	-10.1129
险	-10.1131
朵	-10.1131
千秋圣女	-10.1137
乌丑	-10.1137
圆球	-10.1138
花纹	-10.1139
之辈	-10.1139
改变	-10.1142
这具	-10.1148
之所以	-10.1152
大敌	-10.1159
三道	-10.1161
白影	-10.117
必	-10.1172
走吧	-10.1177
洞窟	-10.1177
各有	-10.1178
华	-10.1183
随意的	-10.1183
建	-10.119
都不	-10.1193
心中一动	-10.1194
铜	-10.1194
他也	-10.1195
一只手	-10.1197
是谁	-10.1197
闷响	-10.1197
缠绕	-10.12
十丈	-10.1203
最起码	-10.1203
火红	-10.1208
被对方	-10.1211
大会	-10.1218
轰鸣声	-10.1219
瞅了	-10.1222
就不	-10.1222
发挥	-10.1224
此岛	-10.1226
互望一眼后	-10.1227
熟	-10.1239
以防	-10.1245
服	-10.1249
欣喜	-10.125
上百	-10.1252
冲击	-10.1253
金色电弧	-10.1255
之大	-10.1255
了一会儿后	-10.1257
等候	-10.1259
任	-10.126
纯	-10.1263
圆环	-10.1265
黄芒	-10.1265
四处	-10.1271
雷光	-10.1275
升	-10.1276
几日	-10.1276
斜	-10.1277
平静的说道	-10.1283
画	-10.1285
阴森	-10.1285
淡淡说道	-10.129
主意	-10.1292
两条	-10.1295
的往	-10.1299
惊慌	-10.1301
颇	-10.1313
灵性	-10.1314
滴	-10.1316
坠	-10.1316
飞升	-10.1321
武	-10.1326
胖子	-10.1326
啧啧	-10.1328
董萱儿	-10.1328
血脉	-10.1328
分开	-10.1328
向四面八方	-10.1332
桌上	-10.1342
天地元气	-10.1343
怎么样	-10.1345
互望了一眼	-10.1346
无事	-10.1347
虽然不知道	-10.1349
的金色	-10.1349
动用了	-10.1351
奇怪的	-10.1354
炼制的	-10.1356
▁一时间	-10.1357
几道	-10.1359
和对方	-10.1362
魔劫	-10.1362
的一声巨响	-10.1363
既然是	-10.1365
摸	-10.1368
一涨	-10.137
什么事情	-10.137
拒绝	-10.1371
莲	-10.1375
元婴中期	-10.1382
向了	-10.1388
▁只是	-10.1388
他才	-10.1389
软	-10.1391
培育	-10.1392
骄阳	-10.1392
尝试	-10.1394
仿若	-10.1395
化为一只	-10.1395
一份	-10.1402
被那	-10.1404
也不过	-10.1406
什么时候	-10.1416
鬼雾	-10.1421
号	-10.1425
十有八九	-10.1428
其他的	-10.1433
一拂	-10.1442
▁韩立则	-10.1442
力气	-10.1442
将所有	-10.1446
倒吸了一口凉气	-10.1448
庞大身躯	-10.1453
而来的	-10.1454
的气息	-10.1456
召唤	-10.1461
显	-10.1462
再也无法	-10.1462
寸	-10.1464
一家	-10.1468
▁第七	-10.1472
再无	-10.1473
艳	-10.1477
半晌后	-10.1489
这两人	-10.149
不知名	-10.1493
即将	-10.1495
丝毫不	-10.1495
而回	-10.1497
是我	-10.1505
放过	-10.1508
也被	-10.1511
短时间内	-10.1517
怎么回事	-10.1521
悦耳	-10.1522
崩溃	-10.1522
游	-10.1522
乾蓝冰焰	-10.1522
金越禅师	-10.1523
喷射而出	-10.1523
收敛	-10.1524
透	-10.1535
无声无息	-10.1538
法决	-10.1539
▁忽然	-10.1539
除	-10.1542
耀眼	-10.1548
一闪即逝	-10.1552
片刻工夫后	-10.1553
精神	-10.1553
小姐	-10.1556
笔	-10.1558
处于	-10.1558
世间	-10.1558
四周的	-10.1559
青袍	-10.1559
见了	-10.156
七色	-10.1565
韩立脸上	-10.1567
之高	-10.157
气势	-10.1573
嘀咕	-10.1576
耳	-10.1583
分神	-10.1586
凌玉灵	-10.1588
一阵流转	-10.1589
秦言	-10.1589
无比的	-10.1592
迎	-10.1595
惹	-10.1597
阴风	-10.1599
前进	-10.1603
乌云	-10.1603
两头	-10.1604
大步	-10.1612
温	-10.1612
雷鸣声	-10.1621
压制	-10.1624
此功法	-10.1625
占	-10.1627
贴	-10.1627
韩立自然	-10.1628
混	-10.1634
往下	-10.1637
不放	-10.1643
都已经	-10.1645
苦修	-10.1649
很少	-10.1651
富姓老者	-10.1655
见到此幕	-10.1656
从虚空中	-10.166
不知为何	-10.1666
主持	-10.1668
抛	-10.167
一声霹雳	-10.1671
门主	-10.1673
线	-10.1677
无名	-10.1678
鬼脸	-10.1681
就开始	-10.1681
一指	-10.1686
火海	-10.1686
逃出	-10.169
已经被	-10.1699
连忙	-10.1703
仙人	-10.1707
柄	-10.1712
队	-10.1712
轰鸣	-10.1713
神色不变	-10.1718
下去了	-10.1718
已经是	-10.1721
资料	-10.1721
文思月	-10.1721
骸骨	-10.1721
于是	-10.1723
驱动	-10.1724
树木	-10.1724
生怕	-10.1725
的爆裂而开	-10.1727
▁它	-10.1729
七派	-10.173
射去	-10.1741
银光一闪	-10.1743
殿门	-10.1743
一点点的	-10.1744
越发的	-10.1748
端	-10.175
▁其他人	-10.1751
想起了	-10.1757
也有些	-10.1758
语	-10.1766
露出了一丝	-10.1769
满面	-10.1774
掩月宗	-10.1775
一眼后	-10.1776
此位	-10.1777
一把将	-10.1788
紫发女子	-10.1788
神色如常	-10.1789
盘旋飞舞	-10.1789
脸色微变	-10.179
峡谷	-10.179
漂浮	-10.179
男	-10.1798
本事	-10.18
了些	-10.1809
凝重的	-10.1815
出手了	-10.182
小子	-10.182
用处	-10.1822
一停	-10.1825
一轮	-10.1827
做到	-10.1828
一群	-10.183
▁韩立闻言	-10.1831
示	-10.1832
如此的	-10.1834
站在原地	-10.1836
往空中	-10.1842
悠悠	-10.1844
挥动	-10.1845
不妥	-10.1845
恐怖	-10.1851
发出一声	-10.1851
那颗	-10.1855
麻	-10.1856
妙音门	-10.1856
不算	-10.1856
躲避	-10.1858
之余	-10.1861
嘴巴	-10.1862
一弹	-10.1863
▁就这样	-10.1865
休息	-10.1866
好友	-10.1866
金光灿灿	-10.1868
正是韩立	-10.1871
海兽	-10.1875
石台	-10.188
你也	-10.1885
细细	-10.1887
海域	-10.1889
但随后	-10.1889
▁下方	-10.1889
不像	-10.1891
的对手	-10.1892
无需	-10.1902
谢	-10.1902
缠	-10.1905
详细	-10.1907
吃了一惊	-10.1911
迎头	-10.1915
吐	-10.1916
尊	-10.1916
但韩立	-10.1918
自语	-10.1918
不过是	-10.192
咳	-10.1923
世界	-10.1924
千机子	-10.1924
纵横人界	-10.1924
石殿	-10.1924
凝厚	-10.1925
腾空而起	-10.1925
独自	-10.1926
大修士	-10.1926
恰好	-10.1927
石室	-10.1931
脱离	-10.1931
的一幕	-10.1941
被他	-10.1946
陪	-10.1948
不动声色的	-10.1953
的银色	-10.1956
站着	-10.1959
声响	-10.1959
如此大	-10.1962
的修仙者	-10.1963
有不少	-10.1968
生有	-10.1968
自保	-10.1972
纹	-10.1972
说笑了	-10.198
五魔	-10.198
通灵	-10.1984
南	-10.1985
天赋	-10.1987
出身	-10.1988
旧	-10.199
就已经	-10.1992
掌柜	-10.1992
两手掐诀	-10.1994
派出	-10.1996
属性	-10.1998
此剑	-10.1999
银色火鸟	-10.2
▁当韩立	-10.2
灰白色	-10.2003
魔器	-10.2005
贵族	-10.2013
雾气中	-10.2013
此法阵	-10.2013
的女子	-10.2014
损伤	-10.2015
而逃	-10.2015
凝望着	-10.2016
思	-10.2019
外界	-10.202
世家	-10.2022
知道此事	-10.2027
眼看	-10.2031
自然要	-10.2036
乎	-10.2036
的青色	-10.2039
他们的	-10.2039
的面容	-10.2047
大为的	-10.2048
严	-10.2057
风雷翅	-10.2059
小型	-10.2061
千万	-10.2061
私	-10.2061
精神一振	-10.2061
化为无数	-10.2065
魔族大军	-10.2066
尽力	-10.2067
鼎中	-10.207
化神	-10.207
▁少女	-10.2073
我看	-10.2073
▁要知道	-10.2075
此地的	-10.2079
自然知道	-10.208
收了起来	-10.2085
肯定会	-10.2093
足以	-10.2094
传送法阵	-10.2098
却有	-10.21
价格	-10.2101
黑气中	-10.2101
痛	-10.2103
付家	-10.2103
有任何	-10.2103
以他	-10.2104
如此多年	-10.2104
大陆	-10.2105
化神期	-10.2105
韩立摸了摸下巴	-10.2109
而行	-10.211
山头	-10.2115
大法	-10.2117
不远处的	-10.2122
盯着韩立	-10.2124
等阶	-10.2124
食	-10.2125
遮蔽	-10.213
▁下面	-10.2131
羽翅	-10.2131
魔焰	-10.2131
现形而出	-10.2131
血燃	-10.2132
黑袍男子	-10.2133
阴寒	-10.2135
▁以	-10.2147
方一接触	-10.2147
浮	-10.2148
一下化为	-10.2151
既	-10.2154
还望	-10.2155
▁其他	-10.216
凑	-10.2163
古兽	-10.2165
血影	-10.2167
恐怕也	-10.217
单手冲	-10.2171
去做	-10.2172
打听	-10.2176
的问题	-10.2178
同阶	-10.2178
遭遇	-10.218
宫	-10.2183
就直接	-10.2187
到了一起	-10.2188
料	-10.2188
大惊	-10.219
划	-10.2192
神妙	-10.2192
箭	-10.2194
心魔	-10.2197
原先的	-10.2199
空空如也	-10.2201
传承	-10.2201
坚持	-10.2201
晶光	-10.221
准确	-10.2217
隔	-10.2217
隐藏	-10.2218
停止了	-10.2222
没入了	-10.2222
文字	-10.2224
反正	-10.2225
往高空	-10.2225
盘坐在	-10.2228
灭杀了	-10.2229
杆	-10.2232
天生	-10.2238
芒	-10.2238
想不到	-10.2241
无意中	-10.2241
都能	-10.2242
嗡鸣	-10.2243
挡	-10.2245
些的	-10.2245
支	-10.2245
兽群	-10.2246
情况下	-10.2248
的青年	-10.2248
煞	-10.2252
高层	-10.2262
自然会	-10.2262
一个盘旋	-10.2262
捏	-10.2265
十几丈	-10.2268
的速度	-10.2268
二十	-10.227
幸亏	-10.2271
本盟	-10.2273
另有什么	-10.2275
数十年	-10.2275
轻笑一声	-10.2276
一名身穿	-10.2278
低吼	-10.2281
全都是	-10.2284
神念往	-10.2285
无法再	-10.2286
▁而且	-10.2289
何处	-10.229
动了	-10.2294
飞舟	-10.2296
走了出来	-10.2302
称呼	-10.2304
听完	-10.2306
中传出	-10.2312
白衣	-10.2313
尖鸣	-10.2315
活动	-10.2315
乌光	-10.2318
无奈	-10.2329
幻化成了	-10.2331
包裹的	-10.2332
足可以	-10.2337
结束	-10.2337
观察	-10.2339
粉碎	-10.2342
炙热	-10.2342
显现而出	-10.2343
罩在了其中	-10.2343
四肢	-10.2344
就想	-10.2344
动静	-10.2346
的多	-10.2349
自然不可能	-10.2353
的真正	-10.2357
在上面	-10.236
韩立三人	-10.2366
珠子	-10.2382
相对	-10.2383
从其	-10.2387
答应一声	-10.2389
三大	-10.239
了吗	-10.2391
虹	-10.2391
晃	-10.2393
湖	-10.2393
拿下	-10.2394
识	-10.2397
熔岩	-10.2408
教	-10.241
之类的	-10.2411
局	-10.2411
聊	-10.2413
一大片	-10.2417
这位道友	-10.2418
风刃	-10.2419
的情况下	-10.2424
的其他	-10.2426
典籍	-10.2429
施展了	-10.2431
忍不住的	-10.2438
实在太	-10.244
哪里	-10.244
马良	-10.2446
鼻	-10.2451
壁	-10.2457
摇	-10.246
双足	-10.246
散发的	-10.2461
的一种	-10.2473
为首的	-10.2479
但这	-10.2482
光芒一敛	-10.2482
妖王	-10.2483
好在	-10.2483
不起眼的	-10.2484
宋姓女子	-10.2486
激烈	-10.2486
印象	-10.2486
血玉蜘蛛	-10.2486
圭灵	-10.2486
圆盘	-10.2487
妖异	-10.2489
一瞬间	-10.2489
另行	-10.2492
两口	-10.2493
修建	-10.2495
微微一怔	-10.2497
不敢怠慢	-10.25
激动	-10.2502
数种	-10.2502
太过	-10.2509
怎么会	-10.251
一天	-10.2513
但是在	-10.2517
想起了什么	-10.2517
双翅一展	-10.2519
苍白	-10.252
一声后	-10.2521
溜	-10.2522
但仍	-10.2523
丝丝	-10.2526
为主	-10.2529
金灿灿	-10.2529
原因	-10.2529
刺目耀眼	-10.253
顺	-10.254
撞	-10.254
只要能	-10.2543
不下于	-10.2544
灵物	-10.2547
莫	-10.2551
龟	-10.2551
起来了	-10.2551
赌	-10.2555
庚精	-10.2558
萧冥	-10.2558
粉红	-10.2559
姓老者	-10.2561
之势	-10.2561
测试	-10.2562
光芒大放	-10.2562
一听此言	-10.2563
▁刚才	-10.2564
草原	-10.2568
倒也没有	-10.2568
的厉害	-10.2573
拜见	-10.2577
长时间	-10.2578
就再次	-10.258
我是	-10.2583
纷纷的	-10.2591
却没有	-10.2597
虽	-10.2602
滑	-10.2605
夺	-10.2606
拳	-10.2607
海面	-10.2607
通道中	-10.2609
余	-10.2609
缘	-10.261
借用	-10.2616
猛然一	-10.2618
站在那里	-10.2619
取宝	-10.2619
森然	-10.262
戈	-10.2626
金雷竹	-10.2629
记忆	-10.2631
夹	-10.2633
至宝	-10.2634
界面	-10.2641
化为一片	-10.2642
刻	-10.2648
客人	-10.2652
低阶修士	-10.2658
太远	-10.2658
剑诀	-10.266
自会	-10.2662
一空	-10.2664
负	-10.2665
洞穿而过	-10.2669
飞行了	-10.2674
即可	-10.2675
还没	-10.2676
进阶大乘	-10.2683
绿液	-10.2689
是一件	-10.2691
此虫	-10.2692
原料	-10.2697
雷鸣	-10.2697
溃散消失	-10.2699
明眸	-10.2705
打了个哈哈	-10.2705
为中心	-10.2707
炼制出	-10.2708
大小不一的	-10.2708
空间节点	-10.2708
变幻	-10.271
以上的	-10.2712
的话来	-10.272
还好	-10.2724
面色大变	-10.2728
在意	-10.2729
▁好在	-10.2731
黑雾	-10.2733
只不过是	-10.2736
将神识	-10.2747
冲出	-10.2748
听着	-10.2752
心中一松	-10.2753
图案	-10.276
我可	-10.2764
这股	-10.2767
蜂	-10.2775
但对	-10.2777
唰	-10.2779
出售	-10.2779
共同	-10.278
向远处	-10.2782
塔	-10.2788
近似	-10.2789
不远	-10.279
有一种	-10.2794
用途	-10.28
▁一声	-10.2804
苦笑一声	-10.2806
紧随	-10.2808
坏	-10.2808
就见	-10.2808
一凛	-10.281
形成了	-10.2811
烟	-10.2811
但还是	-10.2815
击在	-10.2818
不满	-10.2832
一株	-10.2833
份	-10.2836
悄然	-10.2837
一声低吼	-10.2842
中间的	-10.2848
一声轰鸣	-10.2852
尘	-10.2852
豹麟兽	-10.2853
单手一扬	-10.2857
轻叹了一口气	-10.2857
并无	-10.2863
灵王	-10.2865
思量着	-10.2871
忍不住	-10.2875
不由的	-10.2882
细看	-10.2882
十几名	-10.2885
这三人	-10.2886
洁白	-10.2889
似乎在	-10.289
阵眼	-10.289
黑甲大汉	-10.2893
居住	-10.2899
共	-10.2901
不少的	-10.2902
激射而走	-10.2902
这些年	-10.2903
这小子	-10.2908
▁一旁的	-10.291
扬首	-10.2912
的白色	-10.2914
随便	-10.2915
院	-10.2922
韩立终于	-10.2924
擎天	-10.2928
羡慕	-10.2928
冥雷兽	-10.2929
屋门	-10.2929
景象	-10.2929
修复	-10.2929
圣子	-10.2934
让自己	-10.2942
在外面	-10.2943
趁机	-10.2944
很快	-10.2945
更大	-10.2946
的那位	-10.295
十年	-10.2956
的神识	-10.2962
韩立微微一笑	-10.2963
巨手	-10.2964
是何	-10.2966
直奔韩立	-10.2969
一等	-10.2973
顾	-10.2974
若是能	-10.2978
变成	-10.2978
了一会儿	-10.2991
▁二者	-10.2993
友	-10.2993
韩立点点头	-10.2995
孙	-10.3
血肉	-10.3
蜘蛛	-10.3001
啼魂	-10.3002
代表	-10.3005
恼怒	-10.3005
任凭	-10.3005
帮助	-10.3009
谷家	-10.3017
功效	-10.3018
剩下	-10.3018
要去	-10.3018
到时候	-10.3021
店主	-10.3021
深吸了一口气	-10.3022
做什么	-10.3023
扫视	-10.3024
难以置信	-10.3026
能让	-10.3031
光幕中	-10.3033
当做	-10.3034
屋	-10.3035
法则之力	-10.3036
但又	-10.3036
闪电般	-10.3042
变形	-10.3046
在这些	-10.3047
谷中	-10.3049
忘	-10.305
只是在	-10.3051
淡金色	-10.3055
广	-10.3056
配	-10.3065
犀利	-10.3065
似乎有些	-10.3076
遥遥	-10.3077
羽	-10.3077
恐	-10.3079
蒙	-10.308
倚天城	-10.308
领悟	-10.3081
坦然	-10.3081
表示	-10.3081
突破瓶颈	-10.3082
碧影	-10.3082
▁而就在这时	-10.3087
▁就在韩立	-10.3091
我要	-10.3093
来到	-10.3094
宗内	-10.3095
多加	-10.3096
血云	-10.3097
包围	-10.3098
旁	-10.3098
缘故	-10.3099
动心	-10.3099
晶球	-10.3102
出手相助	-10.3106
石头	-10.311
大感意外	-10.311
颜色各异的	-10.312
圣界	-10.3123
然后再	-10.3123
全无	-10.3132
如此说了	-10.3142
大减	-10.3143
元婴后期	-10.3143
松了一口气	-10.3144
一句话	-10.3146
韩立闻言	-10.3146
极大	-10.3148
废	-10.3154
是一种	-10.3154
汇聚	-10.3155
脸上露出一丝	-10.3155
其他几人	-10.3157
客栈	-10.3157
淹没进了其中	-10.3158
身材	-10.316
天象	-10.3161
韩立神色	-10.3162
意外之色	-10.3166
说话的	-10.3168
缠住	-10.3168
一举	-10.317
段	-10.3172
妖气	-10.3173
了进去	-10.3174
不怕	-10.3175
连连	-10.3176
掉落	-10.3176
滴溜溜一转	-10.318
的魔族	-10.3183
好一会儿后	-10.3186
飞灵族	-10.3188
半天	-10.319
怎	-10.3201
脸上却	-10.3217
毁	-10.3218
主要	-10.3219
的一瞬间	-10.3221
富	-10.3228
翠	-10.3228
下手	-10.3231
这样吧	-10.3231
浪费	-10.3231
庞然大物	-10.3235
维持	-10.3235
三分	-10.3237
耗费	-10.3237
应对	-10.3238
的心思	-10.3241
很简单	-10.3242
不少人	-10.3242
各个	-10.3243
明白了	-10.3244
门外	-10.3245
还算	-10.3246
跟在	-10.326
静等	-10.326
▁大汉	-10.3261
低沉	-10.3263
的原因	-10.3267
千丈	-10.3268
▁说起来	-10.3269
普通修士	-10.3273
这头	-10.3278
盖	-10.3279
储物镯	-10.3281
的手段	-10.3281
毫不在意	-10.3282
绕	-10.3282
心头	-10.3283
顿	-10.3284
逆天	-10.3284
中阶	-10.3286
一滴	-10.3286
从袖中	-10.3287
丈	-10.3288
一摸	-10.3297
备	-10.33
长剑	-10.3302
不久后	-10.3307
一声低喝	-10.3309
那块	-10.3312
壮汉	-10.3312
林银屏	-10.3313
给人一种	-10.3313
连绵	-10.3314
护法	-10.3315
脸色微微一变	-10.3315
信心	-10.3324
人类修士	-10.3324
鲜血	-10.3325
故	-10.3327
▁纵然	-10.333
鲜红	-10.3332
这个自然	-10.3334
燕家	-10.3336
嘴唇	-10.3337
银色符文	-10.3338
过一次	-10.3338
我说	-10.3339
不起	-10.334
赶到	-10.3342
出手的	-10.3344
即	-10.3346
最大的	-10.3347
这倒	-10.3347
提起	-10.3348
的来历	-10.3349
的灵石	-10.3358
包裹着	-10.3361
换了	-10.3363
就马上	-10.3363
修炼了	-10.337
一听这话	-10.3376
在原处	-10.3384
摆脱	-10.3386
奴	-10.3391
辛如音	-10.3392
覆盖	-10.3392
提供	-10.3392
其身上	-10.3393
紫焰	-10.3394
慌忙	-10.3394
竟也	-10.3396
紫金	-10.3396
银丝	-10.3397
之巨	-10.3399
一个月	-10.3406
顷刻间	-10.3406
的情况	-10.3407
失败	-10.3409
广寒界	-10.3412
头顶上	-10.3416
小小	-10.3417
现出一丝	-10.3418
颤	-10.342
的眼神	-10.3424
单手往	-10.3426
就这般	-10.3427
不同的	-10.3431
一声清鸣	-10.3432
韩立没有	-10.3434
找出	-10.3434
给了	-10.3434
就只有	-10.3436
数里	-10.3438
我已经	-10.344
几处	-10.3445
表	-10.3446
三颗	-10.3448
其他地方	-10.3456
遇见	-10.3458
袖子	-10.3459
惹眼	-10.3462
曲	-10.3463
的境界	-10.3463
一声闷响	-10.3465
闪动下	-10.3467
幽	-10.3467
两年	-10.3467
破掉	-10.3468
压下	-10.347
媚	-10.3471
爬	-10.3471
不由自主的	-10.3471
笑了笑	-10.3472
晶族女子	-10.3472
灵躯	-10.3473
吸收	-10.3473
▁巨猿	-10.3475
▁不过韩立	-10.3477
现在的	-10.3477
一闪下	-10.3477
两股	-10.348
避开	-10.3482
衣衫	-10.3482
战团	-10.3483
接下	-10.3484
▁韩立微微一笑	-10.3486
螟虫	-10.3486
难看	-10.3487
已经将	-10.3488
无所谓	-10.349
战舟	-10.3492
不凡	-10.3495
内容	-10.3496
的一声后	-10.35
的点点头	-10.3503
呆	-10.3503
一闪即逝后	-10.3522
涨	-10.3523
眨眼间	-10.3523
没人	-10.3525
说起来	-10.353
错了	-10.3531
另一位	-10.3532
是一个	-10.3534
经常	-10.3536
各族	-10.3539
▁这种	-10.3539
望向了	-10.354
收下	-10.3542
怎可能	-10.3545
元魇	-10.355
师祖	-10.3551
卷轴	-10.3551
喜欢	-10.3551
支持	-10.3552
抬	-10.3552
信息	-10.3552
眸光	-10.3553
山上	-10.3555
胸前	-10.3556
▁韩立却	-10.3557
不在意	-10.3558
尽数	-10.356
高处	-10.3561
寒焰	-10.3564
强横	-10.3567
不善	-10.3568
之广	-10.3568
黑光一闪	-10.3571
仍是	-10.3572
察觉	-10.3572
光是	-10.3577
解释道	-10.3577
远非	-10.3579
六极	-10.3581
流露出	-10.3588
同一	-10.3588
部落	-10.359
模样的	-10.3592
不光	-10.3595
和普通	-10.3595
▁同时	-10.36
对你	-10.36
是真的	-10.3602
高手	-10.3603
再说什么	-10.3604
想着	-10.3606
的距离	-10.3606
这位前辈	-10.3606
这般多	-10.3608
针	-10.3609
后退	-10.361
哪有	-10.3611
惨叫	-10.3616
那道	-10.3616
蓝袍	-10.3617
悬浮	-10.3624
邪莲	-10.363
灯	-10.363
大乘期	-10.363
修罗蛛	-10.3632
银衫女子	-10.3632
稀少	-10.3632
打扮	-10.3633
滞留	-10.3633
路线	-10.3633
无疑	-10.3633
椅子上	-10.3636
盾牌	-10.3636
如此长时间	-10.3643
石碑	-10.3648
似笑非笑的	-10.3654
一紧	-10.3657
那样	-10.3657
那口	-10.3663
发动	-10.3668
反手	-10.367
冷冷的说道	-10.367
从那	-10.3674
恶鬼	-10.3674
▁韩立在	-10.3679
过程	-10.3684
大笑	-10.3687
不肯	-10.3687
未能	-10.3688
是你	-10.3692
四五	-10.3694
一甩	-10.3695
互	-10.3696
果然是	-10.3699
一物	-10.3703
扯	-10.3708
一片片	-10.3708
在人界	-10.371
冥	-10.3711
钵	-10.3712
撑	-10.3713
服饰	-10.3713
拖延	-10.3713
酷似	-10.3713
保命	-10.3714
先前的	-10.3715
手腕一抖	-10.3719
脸上满是	-10.3725
魔禽	-10.3727
穿过	-10.373
一转身	-10.3733
两三	-10.3733
到现在	-10.3735
也不能	-10.3736
从身上	-10.3736
五色光霞	-10.3738
地域	-10.3739
若是真	-10.374
没有马上	-10.374
淡银色	-10.3746
长袍	-10.3754
显出	-10.3757
睁	-10.3762
面露一丝	-10.3762
啸声	-10.3767
上去	-10.3767
临	-10.3767
名气	-10.3771
破空声	-10.3771
从而	-10.3772
身披	-10.3782
老实的	-10.3783
毁掉	-10.3787
野	-10.3793
▁另一边	-10.3793
传音符	-10.3794
传出了	-10.3795
珍贵	-10.3795
监视	-10.3795
交予	-10.3796
赶路	-10.3797
晶丝	-10.3797
镇压	-10.3797
消散	-10.3798
巨龟	-10.3799
难怪	-10.3802
他二人	-10.3803
恢复如常	-10.3803
玉简中	-10.3806
比试	-10.3806
薄	-10.3809
好吧	-10.3811
手里	-10.3811
一下从	-10.3814
化为一股	-10.3815
缺	-10.3815
大出	-10.3819
脸上露出	-10.3822
储物袋中	-10.3835
秘密	-10.3836
产生	-10.3836
最高	-10.3837
一下没入	-10.3839
运	-10.3842
就带着	-10.3842
隐有	-10.3844
点头	-10.3846
重伤	-10.3846
这样一来	-10.3849
的想法	-10.385
时辰	-10.385
大口	-10.3851
在途中	-10.3852
护体	-10.3855
表面上	-10.3861
声中	-10.3864
答应道	-10.3864
产	-10.387
咒	-10.3871
偏	-10.3872
先去	-10.3875
九国盟	-10.3877
刘靖	-10.3878
一个闪动下	-10.3878
陇东	-10.3878
阻止	-10.3878
珍稀材料	-10.388
了点	-10.3884
▁第一	-10.3888
数月	-10.3889
触	-10.3891
另一处	-10.3895
此事的	-10.3895
老妇人	-10.3895
赶紧	-10.3897
器灵	-10.3901
一扭	-10.391
不及	-10.3912
用手指	-10.3913
早在	-10.3915
凝望	-10.3915
参	-10.3924
太久	-10.3933
感应到了	-10.3934
不利	-10.3936
硬接	-10.3937
自然就是	-10.3939
一摆手	-10.3941
逃脱	-10.3942
木灵	-10.3946
高台	-10.3949
洞府中	-10.3949
体内法力	-10.3951
的威能	-10.3953
节点	-10.3958
拔	-10.396
天灵盖	-10.3961
犯	-10.3961
侍妾	-10.3961
令狐老祖	-10.3961
暴怒	-10.3962
混乱	-10.3963
一卷而出	-10.3963
讥讽	-10.3963
今天	-10.3963
废话	-10.3963
他自然	-10.3967
离开此地	-10.3976
平静的	-10.3976
关心	-10.3977
古怪的	-10.3982
适合	-10.3994
目瞪口呆	-10.3997
脸上露出了	-10.4
裂	-10.4005
不太可能	-10.4008
就像	-10.401
也没什么	-10.4014
▁韩立和	-10.4017
一冲	-10.4018
意外的	-10.402
做了	-10.4021
店	-10.4023
都在	-10.4025
坑	-10.4025
但偏偏	-10.4039
黑色山峰	-10.4041
恼	-10.4041
虫云	-10.4045
便宜	-10.4045
阻拦	-10.4045
绿芒	-10.4047
怪虫	-10.4049
到此地	-10.4049
先祖	-10.405
稳	-10.4056
雷火	-10.406
击杀了	-10.4068
冲其	-10.407
丹方	-10.4071
护体灵光	-10.4074
我想	-10.4075
黑风	-10.4076
脱	-10.4079
但实际上	-10.4079
为难	-10.408
没错	-10.4086
的一座	-10.4095
滚	-10.4101
漂浮在	-10.4105
劳	-10.4109
的条件	-10.4115
识趣的	-10.4116
骷髅	-10.4117
金光大放	-10.4117
少了	-10.4121
钱	-10.4122
外出	-10.4128
昆吾山	-10.413
病	-10.413
小老头	-10.413
培养	-10.413
哪怕	-10.4132
青石	-10.4133
从容的	-10.4133
金银	-10.4134
空气	-10.4135
巨树	-10.4135
扭首	-10.4135
反应过来	-10.4136
脸色阴晴不定	-10.4136
念头	-10.4137
风云	-10.4145
的功夫	-10.4148
答应了	-10.4149
大盛	-10.4154
若有所思的	-10.4155
大师	-10.4171
长久	-10.4173
掐	-10.4174
质	-10.4175
五道	-10.4179
下来的	-10.4179
的望着	-10.4179
融	-10.4187
盒中	-10.4188
被困	-10.4189
顾不得	-10.4189
正是那	-10.4189
却似乎	-10.4199
巨塔	-10.4201
电	-10.4203
一晃的	-10.4205
粉	-10.4208
磨	-10.4214
不愧为	-10.4215
丝毫征兆没有的	-10.4215
闪闪发光	-10.4215
神风舟	-10.4215
感激	-10.4216
无忧	-10.4216
协助	-10.4216
陆师兄	-10.4217
护在了其中	-10.4222
胆	-10.4225
中期	-10.4225
一颤之下	-10.4225
▁随着	-10.4226
小女子	-10.4227
炼制成	-10.4228
大怒	-10.4229
看样子	-10.4232
▁这让	-10.4236
展	-10.424
剧烈	-10.4242
的念头	-10.4247
甚至还	-10.4251
其手中	-10.4263
地点	-10.4265
在半空中	-10.4265
外面的	-10.4267
妖禽	-10.427
我现在	-10.427
听到此话	-10.4273
那几名	-10.4275
海中	-10.4288
拖	-10.429
腰	-10.4292
还有什么	-10.4293
盖子	-10.4294
地图	-10.4296
不轻	-10.4299
怎样	-10.4301
丑陋	-10.4301
尽量	-10.4303
怪鸟	-10.4304
灵液	-10.4305
合适	-10.4305
幡旗	-10.4308
一见此幕	-10.4308
还需要	-10.4312
活着	-10.4318
一声巨响	-10.4321
想了想后	-10.4321
冰封	-10.4322
巨花	-10.4325
同道	-10.4329
▁银月	-10.4335
迷你	-10.4335
有些古怪	-10.4337
本宫	-10.4342
就诡异的	-10.4343
漆黑如墨的	-10.4345
将它们	-10.4349
此术	-10.4354
一寒	-10.4357
白袍	-10.4357
你现在	-10.4357
才有	-10.4358
这套	-10.4358
仇	-10.4359
预	-10.4362
的开口了	-10.4364
凭空消失了	-10.4367
施	-10.4377
莲花	-10.4379
被一层	-10.438
将玉简	-10.4381
手腕	-10.4383
受到	-10.4387
腾空	-10.4388
王蝉	-10.4389
被毁	-10.4389
笑了起来	-10.439
就纷纷	-10.4391
飞射而来	-10.4393
某个方向	-10.4395
▁这个	-10.4398
分成	-10.4403
掏出	-10.441
长老会	-10.4412
收好	-10.4412
还无法	-10.4414
出来了	-10.4415
空荡荡的	-10.4415
依	-10.4417
洞口	-10.4419
严严实实	-10.4423
黑乎乎的	-10.4436
灰濛濛	-10.4442
滴溜溜一转后	-10.4442
所有的	-10.4446
入谷	-10.4447
碰到了	-10.4453
的傀儡	-10.4454
特别是	-10.4457
分明是	-10.4459
一个模糊后	-10.4461
略有些	-10.4465
的灵气	-10.447
▁而那	-10.4472
御器	-10.4473
运气	-10.4476
三焰扇	-10.4476
扣	-10.4476
花天奇	-10.4476
昔年	-10.4476
掌控	-10.4476
晶核	-10.4477
也可以	-10.4479
收取	-10.4481
凝神	-10.4482
兽潮	-10.4485
之感	-10.4487
见识	-10.4492
惊怒	-10.4492
多谢前辈	-10.4493
机灵	-10.4495
滴溜溜	-10.4498
呈	-10.45
眨	-10.45
听到韩立	-10.4503
细长	-10.4506
圣族	-10.4508
墨绿	-10.4517
倒底	-10.4522
闪电般的	-10.4527
的那名	-10.4528
答应下来	-10.4528
上来	-10.4529
挡在了	-10.4531
的法宝	-10.4531
得了	-10.4536
分毫的	-10.4538
▁远处	-10.4539
火柱	-10.4541
想到	-10.4543
激	-10.4547
劲	-10.4548
竟能	-10.455
不够	-10.4551
巨峰	-10.4553
黑丝	-10.4557
炼虚期	-10.4557
就已	-10.4559
雕	-10.456
区	-10.4561
的手掌	-10.4562
乐	-10.4563
将你	-10.4563
祸	-10.4565
包括	-10.4565
冷漠	-10.4565
精锐	-10.4565
容貌	-10.4565
看得	-10.4565
清秀	-10.4565
坐镇	-10.4566
白袍少女	-10.4568
说起	-10.4568
吸力	-10.4569
也不用	-10.4569
白芒	-10.4569
嗡鸣声	-10.4569
血祭	-10.457
接受	-10.457
认出了	-10.4571
走了进去	-10.4575
雷兽	-10.4576
让对方	-10.4582
还有其他	-10.4589
又何必	-10.4592
凉	-10.4593
占据	-10.4595
就在这时	-10.4595
漏	-10.4601
笑着	-10.4604
笑声	-10.4604
的口气	-10.4604
几座	-10.4607
好的	-10.4611
枚	-10.4613
不过这	-10.4615
笑着说道	-10.4615
一言不发	-10.4616
的地步	-10.4619
异芒	-10.4621
好事	-10.4621
手一扬	-10.4624
的名字	-10.4626
白家	-10.4629
城门	-10.463
六七	-10.4634
拼	-10.4634
不知名的	-10.4639
百余年	-10.4644
显露	-10.4648
充	-10.4649
整个天空	-10.4649
鹰	-10.4651
拳头大小的	-10.4651
踌躇	-10.4652
北	-10.4653
一男一女	-10.4654
灵脉	-10.4654
遮掩	-10.4654
商铺	-10.4654
失踪	-10.4654
两手一搓	-10.4655
液	-10.4657
排名	-10.4657
黑袍女子	-10.4657
另一方向	-10.4658
碎裂	-10.4659
制符	-10.4659
免	-10.4661
灵地	-10.4661
大都是	-10.4665
往下方	-10.4668
遇到了	-10.4669
付	-10.467
绿气	-10.467
试探	-10.4671
合体后期	-10.4671
韩立这边	-10.4671
和先前	-10.4674
他现在	-10.4674
▁这让韩立	-10.4675
一扫而过	-10.4677
其中一人	-10.4679
能将	-10.468
一体	-10.468
无须	-10.4681
百余	-10.4688
▁倒是	-10.4689
远的地方	-10.4699
心情	-10.4699
寻到	-10.4703
▁那名	-10.4707
再说吧	-10.4709
罕见的	-10.4709
什么人	-10.471
一层层	-10.471
瞳孔	-10.471
桌	-10.4711
韩立又	-10.4711
散发	-10.4712
完整	-10.4714
半年	-10.4722
会不会	-10.4723
的说了一句	-10.4724
设法	-10.4733
我还	-10.4735
满意的	-10.4737
团团	-10.4738
它的	-10.4738
有许多	-10.4739
冥河之地	-10.4741
杂	-10.4741
六翼霜蚣	-10.4744
夫君	-10.4744
残骸	-10.4744
搜索	-10.4744
席卷	-10.4744
状态	-10.4745
目中寒光一闪	-10.4746
掌门	-10.4747
矿脉	-10.475
插手	-10.475
会被	-10.475
一模糊	-10.4751
心惊	-10.4754
陷入	-10.4755
懂	-10.4756
能量	-10.4756
几句话	-10.4758
魔族尊者	-10.4763
韩立目光	-10.4768
没有说什么	-10.4771
韩立将	-10.4775
绝不是	-10.4784
忘了	-10.4787
二层	-10.4788
白濛濛的	-10.4789
附身	-10.479
白玉	-10.479
魄	-10.4791
目露	-10.4793
所有人都	-10.4794
灵符	-10.4796
五颜六色的	-10.4796
遭	-10.4797
早有	-10.481
收进了	-10.4811
已经到了	-10.4814
专	-10.4814
更何况	-10.4814
另一人	-10.4815
话里	-10.4815
一根手指冲	-10.4816
不一定	-10.4818
可没有	-10.4821
一路上	-10.4826
猿	-10.4826
无奈的	-10.4826
须	-10.4827
心中一沉	-10.4827
默默	-10.4828
直到	-10.4829
不易	-10.4831
响起了	-10.4832
益	-10.4833
石城	-10.4833
狠	-10.4833
獠牙	-10.4835
贾天龙	-10.4835
侏儒	-10.4835
腾空飞起	-10.4835
一声大喝	-10.4836
远远看去	-10.4836
神光	-10.4836
打扰	-10.4836
有个	-10.4838
复制	-10.4838
躬身	-10.4839
火热	-10.484
怀内	-10.484
对他来说	-10.484
铭印着	-10.4842
偏偏	-10.4842
也应该	-10.4843
下一次	-10.4843
魔化	-10.4845
一试	-10.4845
我这	-10.4846
补充	-10.4847
真容	-10.4848
率先	-10.4848
含笑	-10.4852
无用	-10.4852
厉害的	-10.4854
瞅	-10.4854
另一侧	-10.4855
时刻	-10.4855
内谷	-10.4856
韩立身前	-10.4861
也并非	-10.4864
一声惨叫	-10.4873
竟真	-10.4873
哈哈一笑	-10.4879
停在了	-10.4882
万里	-10.4882
一个巨大	-10.4885
一放	-10.4886
上古修士	-10.4891
的话语声	-10.4892
丝网	-10.4894
能有	-10.4894
在此时	-10.49
喊	-10.4901
亏	-10.4902
室	-10.4914
讶色	-10.4918
花费了	-10.4919
从上面	-10.4919
收入	-10.4919
黑煞教	-10.4925
墨彩环	-10.4927
翅膀	-10.4927
万万没想到	-10.4927
顾忌	-10.4927
标记	-10.4927
损耗	-10.4928
必定	-10.4929
帮忙	-10.493
半日	-10.493
释放	-10.4931
进化	-10.4934
同门	-10.4935
重视	-10.4935
棘手	-10.4939
飞到	-10.4945
第三	-10.4947
微然一笑	-10.4953
白气	-10.4955
之主	-10.4958
更有	-10.4958
一闪即逝下	-10.4961
片刻工夫	-10.4961
一个模糊	-10.4961
而入	-10.4962
地位	-10.4964
苦苦	-10.4964
的噬金虫	-10.4965
可以让	-10.4969
做的	-10.4973
这里的	-10.4976
能做到	-10.4979
和自己	-10.498
谁知道	-10.4986
和他们	-10.4989
才发现	-10.499
调动	-10.4991
更加的	-10.4992
一本	-10.4992
▁韩立这才	-10.4999
天渊城的	-10.5004
一二了	-10.5007
却丝毫	-10.5009
过人	-10.501
虽然只是	-10.5012
柳	-10.5013
兵	-10.5015
将附近	-10.5016
▁听了这话	-10.5017
几天	-10.5018
相当于	-10.5019
油	-10.5019
飞舞	-10.5019
妹妹	-10.5019
青元剑诀	-10.5019
追踪	-10.502
白璧	-10.502
印记	-10.502
挑选	-10.5021
举行	-10.5021
可否	-10.5021
炼尸	-10.5021
破裂	-10.5022
异变	-10.5023
血芒	-10.5024
闭	-10.5028
灌注	-10.5028
人数	-10.5029
也已经	-10.5034
出价	-10.5037
告辞	-10.5037
散去	-10.5045
六道	-10.5048
及时	-10.505
韩立神色一动	-10.5053
上下	-10.5055
对这些	-10.5056
死死	-10.5059
晚上	-10.5059
抓着	-10.5059
灵禽	-10.5062
母	-10.5069
形状	-10.5072
出关	-10.5073
缕	-10.5077
这两名	-10.5079
摄	-10.508
但若	-10.508
流转不定	-10.5082
想象	-10.5083
到手	-10.5084
藏在	-10.5085
才刚刚	-10.5089
打出	-10.509
玉容	-10.5092
权	-10.5095
皇	-10.5097
墙壁	-10.5099
腿	-10.51
索	-10.5104
瞬间就	-10.5105
心得	-10.5106
直扑	-10.5106
颜	-10.5108
的讲道	-10.511
一合	-10.5112
赐	-10.5112
风元大陆	-10.5113
绰绰有余	-10.5113
收拾	-10.5113
黄粱灵君	-10.5113
齐云霄	-10.5113
侍女	-10.5113
避免	-10.5113
陇兄	-10.5113
腹中	-10.5115
白果儿	-10.5115
号称	-10.5116
竟似乎	-10.5117
突兀人	-10.5117
带领下	-10.5121
不用担心	-10.5121
却被	-10.5122
此鸟	-10.5123
一进入	-10.5123
认出	-10.5123
木匣	-10.5128
黑云	-10.5134
不变	-10.5135
将他们	-10.5138
人物	-10.5144
那团	-10.5146
殿堂	-10.5146
而那	-10.5147
现身而出	-10.5148
一缓	-10.5149
杀了	-10.5152
心中不禁	-10.5155
将目光	-10.5157
死死的	-10.5158
在场	-10.5161
电网	-10.5165
空间波动一起	-10.5171
虫群	-10.518
成形	-10.5181
无语	-10.5182
侧	-10.5182
遗	-10.5182
另一边	-10.5182
低沉的	-10.5182
鹏	-10.5183
以韩立	-10.5185
最大	-10.5189
还不是	-10.5191
易	-10.5202
狠狠的	-10.5204
有些不太	-10.5205
频繁	-10.5207
异魔金	-10.5207
北极元光	-10.5207
擅长	-10.5208
爪芒	-10.5208
交代	-10.5209
一阵骚动	-10.5211
雷珠	-10.5212
王师兄	-10.5214
的一干二净	-10.5215
一筹	-10.5215
也不想	-10.5219
带路	-10.5222
一侧的	-10.5222
若不	-10.5223
不快	-10.5225
所在的	-10.5228
板	-10.523
进出	-10.5232
常人	-10.5236
摸了摸下巴	-10.5237
也不知道	-10.5238
达到	-10.5239
满脸的	-10.5243
倒不是	-10.5247
韩立眉头一皱	-10.5255
消失的	-10.5255
几乎同时	-10.5256
男子声音	-10.5258
跟我	-10.5262
直径	-10.5262
用了	-10.5262
怎么可能	-10.5264
显露出	-10.5264
株	-10.5264
当韩立	-10.5265
一刻	-10.5265
还是要	-10.5266
兴奋之色	-10.5267
远胜	-10.5268
后手	-10.5271
紧紧	-10.5276
这般大	-10.5277
牙	-10.5277
得多	-10.5279
吓	-10.5282
效	-10.5284
候	-10.5289
暴露	-10.5291
面具	-10.5292
更多	-10.5292
胸	-10.5293
结丹后期	-10.5297
抚摸	-10.5299
弓	-10.5302
化为了灰烬	-10.5302
夺舍	-10.5303
商盟	-10.5303
李师祖	-10.5303
▁第八	-10.5303
上古时候	-10.5304
用一种	-10.5306
镜子	-10.5308
来回	-10.531
失声	-10.5312
醒	-10.5312
瞅了一眼	-10.5313
应声	-10.5314
飞遁而去	-10.5316
外围	-10.5328
金青	-10.5328
颇有	-10.5333
三位道友	-10.5338
微微一颤	-10.534
纷纷没入	-10.534
目中闪过一丝	-10.534
几下后	-10.5342
一团青光	-10.5344
托着	-10.5347
震动	-10.5348
一闪而现	-10.5349
时机	-10.5352
云雾	-10.5355
的各种	-10.5359
面面相觑	-10.5359
的主意	-10.536
十几只	-10.5366
的想道	-10.5367
若无其事	-10.537
的下场	-10.5372
迟	-10.5375
地火	-10.5377
的神念	-10.5378
四个	-10.538
而上	-10.538
▁不过他	-10.5383
▁从	-10.5384
那枚	-10.5388
嘴唇微动	-10.539
耳边	-10.539
御灵宗	-10.5391
一落	-10.5391
阵阵的	-10.5393
幸	-10.5396
纸	-10.5397
妙龄女子	-10.5398
供奉	-10.5399
悠然	-10.5399
施礼	-10.5399
催熟	-10.5399
墨府	-10.5399
貌美	-10.5399
车队	-10.5399
依靠	-10.54
副	-10.54
遁出了	-10.54
耀目	-10.54
越皇	-10.54
情报	-10.5401
要塞	-10.5402
确认	-10.5404
少主	-10.5407
两座	-10.5409
轮回	-10.5413
都有些	-10.5413
所需	-10.5415
闪过后	-10.5416
一下吧	-10.5422
轻描淡写的	-10.5424
一会儿后	-10.5425
也顾不得	-10.5429
的秘术	-10.5431
大乘老祖	-10.5435
倒退	-10.5437
皮袋	-10.544
撕	-10.5441
房	-10.5443
暗暗	-10.5443
是用	-10.5443
有效	-10.5446
几年	-10.5447
要紧	-10.5449
落到	-10.5452
逃遁	-10.5452
一下就	-10.5453
弹射	-10.5458
老老实实的	-10.5459
暂	-10.5459
一条手臂	-10.546
厅堂	-10.5461
连声	-10.5461
试	-10.5468
需	-10.5473
▁等	-10.5474
有些担心	-10.5475
独角	-10.5475
敬	-10.5478
了片刻	-10.5479
完了	-10.5483
有没有	-10.5484
用手	-10.5488
灭了	-10.5489
不打算	-10.549
韩立忽然	-10.5491
福	-10.5495
栩栩如生	-10.5496
龙晗	-10.5496
静室	-10.5496
放下	-10.5498
长辈	-10.5499
事后	-10.5501
这番	-10.5502
自问	-10.5502
也纷纷	-10.5502
随口	-10.5504
多半是	-10.5504
承受	-10.5506
沉声	-10.5507
惧怕	-10.5508
元婴中期修士	-10.5508
记载的	-10.5508
遁出	-10.5509
隐约有	-10.5509
古文	-10.5512
抢先	-10.5513
四散	-10.5514
去找	-10.5516
就化为一道	-10.5518
灵目	-10.5519
多远	-10.552
下次	-10.5521
五色霞光	-10.5522
碰	-10.5523
必要	-10.5524
我倒	-10.5525
数寸	-10.5528
街道	-10.553
都可以	-10.5531
没有再	-10.5535
将此物	-10.5539
准	-10.5551
互望一眼	-10.5551
了三分	-10.5552
他在	-10.5554
枯瘦	-10.5556
见面	-10.5559
在身前	-10.5565
心中大喜	-10.5571
中年	-10.5574
神念之力	-10.5577
也开始	-10.5578
有事	-10.558
注意到	-10.5581
落入	-10.5582
闪电	-10.5587
可想而知了	-10.559
魔头	-10.5592
剩余的	-10.5593
不管怎么说	-10.5593
叮嘱	-10.5594
英	-10.5594
魔金山脉	-10.5594
九曲灵参	-10.5594
温天仁	-10.5594
八灵尺	-10.5594
惊喜交加	-10.5594
飞射而回	-10.5594
探测	-10.5594
▁七玄门	-10.5594
走进	-10.5595
另一端	-10.5595
巨门	-10.5595
飞卷而出	-10.5596
造化	-10.5596
背部	-10.5596
阴厉	-10.5596
单手一抬	-10.5597
惊骇	-10.5598
玉盘	-10.5599
凄厉	-10.56
绿影	-10.5601
有一定	-10.5601
这倒也是	-10.5602
台上	-10.5603
预料的	-10.5608
石阶	-10.561
惊呼	-10.5615
之宝	-10.5615
白光闪动	-10.5618
的巨型	-10.562
移动	-10.5625
原处	-10.5626
略一沉吟后	-10.5628
实在有些	-10.563
远比	-10.5632
韩立听了	-10.5634
采	-10.5643
和老者	-10.5643
不清楚	-10.5649
一把抓住	-10.5658
驱	-10.566
撞击	-10.566
不高	-10.5664
韩立面上	-10.5667
合体中期	-10.5668
再也	-10.5672
无法抵挡	-10.5676
侵入	-10.5677
时期	-10.5683
吼	-10.5685
却在	-10.5685
▁它们	-10.5685
盟	-10.5689
的一位	-10.5689
丧	-10.569
田	-10.569
咒语	-10.5691
垂	-10.5691
卵	-10.5692
宁	-10.5692
吊眉汉子	-10.5693
搜集	-10.5693
经脉	-10.5693
议论	-10.5693
兵刃	-10.5693
围攻	-10.5693
锦衣大汉	-10.5694
器物	-10.5694
惊恐	-10.5694
铺天盖地的	-10.5697
▁接下来	-10.5699
些许	-10.57
一声嗡鸣	-10.5701
本王	-10.5701
此区域	-10.5701
口中一声低喝	-10.5702
触手	-10.5702
藏身	-10.5703
叫道	-10.5706
沉吟之色	-10.5706
血魂	-10.5707
之音	-10.5707
墨	-10.571
灵兽袋	-10.5711
山脉中	-10.5712
和道友	-10.5715
三分之一	-10.5715
躲在	-10.5716
口吐	-10.5719
不在乎	-10.5721
变的	-10.5724
▁眼见	-10.5729
倍许	-10.573
只是一闪	-10.5734
撤	-10.5734
看的	-10.5739
你说	-10.5742
轻轻一点	-10.5744
吸入	-10.5747
难得的	-10.5748
兴	-10.5749
五人	-10.5749
百里	-10.5751
周围	-10.5754
是想	-10.5758
丢	-10.5761
使者	-10.5762
传送到	-10.5764
小事	-10.5769
▁竟是	-10.5772
衫	-10.5773
突然从	-10.5773
再过	-10.5774
一个模糊的	-10.5774
应该有	-10.5776
莫大	-10.5779
没有其他	-10.5781
迹	-10.5781
凶恶	-10.5783
感受到	-10.5784
蝎	-10.5787
稀奇	-10.5792
挺	-10.5792
搬	-10.5792
六条手臂	-10.5793
骑士	-10.5793
闻听此言	-10.5793
耗尽	-10.5794
这两个	-10.5794
武功	-10.5795
剑芒	-10.5795
闭上双目	-10.5795
千余丈	-10.5795
走了进来	-10.5796
罕见	-10.5796
做法	-10.5797
边上	-10.5797
魔修	-10.5798
水潭	-10.5799
将他	-10.5799
飞射而去	-10.58
在此之前	-10.5801
可怜	-10.5801
小幡	-10.5801
可以将	-10.5802
那条	-10.5806
盒盖	-10.5806
心急	-10.5811
迷雾	-10.5812
是无法	-10.5812
大哥	-10.5812
就算是	-10.5822
为此	-10.5822
秦	-10.5838
大有可能	-10.5838
腹	-10.5842
再去	-10.5843
斗法	-10.5844
心中的	-10.5855
一卷而去	-10.5863
阴晴不定	-10.5864
含	-10.5865
▁即使	-10.5866
列	-10.5869
血光一闪	-10.587
跑到	-10.587
不算什么	-10.5875
飞虫	-10.5876
都没	-10.5881
轻轻一	-10.5886
到这里	-10.5887
拳影	-10.589
三者	-10.5893
入侵	-10.5893
吓了一大跳	-10.5894
霓裳草	-10.5894
古灯	-10.5894
将此事	-10.5895
楼阁	-10.5895
击败	-10.5896
低空处	-10.5897
双修	-10.5897
画面	-10.59
本命	-10.5901
蓦然从	-10.5903
重宝	-10.5903
神奇	-10.5905
被灭	-10.5906
不动声色	-10.5907
自由	-10.5907
似乎还	-10.5907
金银色	-10.5908
色的	-10.5912
形成的	-10.5921
大劫	-10.5921
黑乎乎	-10.5931
光幕上	-10.5937
绝不	-10.5937
双眼	-10.5939
和一些	-10.5942
任谁	-10.5949
之光	-10.5959
看向	-10.5961
尽头	-10.5961
残留	-10.5965
百万	-10.5965
远在	-10.5966
就让	-10.5966
▁眼看	-10.5969
天空中	-10.5973
这块	-10.5976
只会	-10.5978
▁既然	-10.5979
灵光大放	-10.5981
你这	-10.5981
和一名	-10.5982
躺在	-10.5984
区别	-10.5987
还有一些	-10.5989
往身前	-10.599
圣阶	-10.5992
脑	-10.5992
春	-10.5993
议	-10.5993
淡黄色	-10.5994
我先	-10.5994
真血	-10.5994
小灵天	-10.5996
眉头紧皱	-10.5996
胸膛	-10.5996
继承	-10.5996
宋蒙	-10.5996
图谋	-10.5996
急速	-10.5997
残刃	-10.5997
双眉	-10.5998
可能是	-10.5998
分辨	-10.5999
青烟	-10.5999
淡然	-10.5999
参见	-10.6
能找到	-10.6
尽管放心	-10.6001
的几率	-10.6002
接下来	-10.6004
普通人	-10.6004
残余	-10.6006
来看	-10.6007
小旗	-10.6012
的命令	-10.6012
大涨	-10.6013
这般说道	-10.6014
丑妇	-10.6018
微微一	-10.602
尺许	-10.6027
真假	-10.6031
为什么	-10.6032
妖魔	-10.6033
一扬手	-10.6036
的异样	-10.6037
此丹	-10.604
魂魄	-10.604
若想	-10.6042
放弃了	-10.6044
根本不是	-10.6045
吃惊之色	-10.6046
但面上	-10.6051
没有多少	-10.6056
木然	-10.6057
出现过	-10.6058
的某处	-10.606
沉吟了一下	-10.6061
凝聚成	-10.6066
黑袍	-10.6069
我可以	-10.6072
有过	-10.6074
赞同	-10.6081
发生了	-10.6081
的那个	-10.6086
闲	-10.6086
这两种	-10.6086
格	-10.6087
身躯中	-10.6089
链	-10.6093
叹	-10.6094
村	-10.6094
公	-10.6096
孔雀	-10.6097
炼虚级	-10.6097
如意	-10.6098
梵圣真魔功	-10.6099
遵命	-10.6099
争夺	-10.61
清冷	-10.6102
交情	-10.6103
试炼	-10.6103
第三层	-10.6104
巨浪	-10.6104
值得	-10.6105
是为了	-10.6106
尽快	-10.6113
白雾	-10.6115
听到了	-10.6116
那东西	-10.6117
而至	-10.612
击破	-10.6121
就不再	-10.6122
老者和	-10.6122
刺耳	-10.6122
火属性	-10.6125
器	-10.6128
海面上	-10.6128
为何会	-10.6129
寒光一闪	-10.6131
并没有什么	-10.6132
附近虚空中	-10.6135
就蓦然	-10.6136
落而下	-10.6138
头痛	-10.614
雷阵	-10.614
犹豫了一下后	-10.614
走上	-10.6141
是他	-10.6142
矮	-10.6144
的方向	-10.615
圆形	-10.6151
逃掉	-10.6152
神雷	-10.6156
一双	-10.6157
劝	-10.6162
壮	-10.6162
虽然不是	-10.6164
微弱	-10.6166
先将	-10.6167
愿	-10.6168
踪影	-10.6169
▁韩立心里	-10.6172
▁韩立目光	-10.6172
碰见	-10.6178
瞬间将	-10.618
让她	-10.6184
砖	-10.6188
省	-10.6188
并将	-10.6191
搅	-10.6191
不舍	-10.6194
▁但他	-10.6195
斧	-10.62
罩住	-10.6201
挣扎	-10.6202
余子童	-10.6203
演	-10.6203
承诺	-10.6203
良机	-10.6203
连绵不绝	-10.6203
柳玉	-10.6205
一散而开	-10.6205
原形	-10.6205
许蛟	-10.6206
句	-10.6206
韩立还是	-10.6206
单手虚空一抓	-10.6208
出其不意的	-10.6211
炼制之法	-10.6211
破坏	-10.6214
带有	-10.6216
▁一见	-10.6216
更多的	-10.6218
碧绿色	-10.6218
诞生	-10.6221
胆子	-10.6221
又不是	-10.6225
有余	-10.6235
了几声	-10.6236
某些	-10.6237
真龙	-10.6238
才知道	-10.6238
就在此时	-10.6239
而且还	-10.6241
行事	-10.6244
身上气息	-10.6246
一听韩立	-10.6246
这条	-10.6246
急着	-10.6247
善	-10.6248
▁韩立自然	-10.625
一礼	-10.6252
身体中	-10.6257
钻	-10.6257
▁接着他	-10.6264
建议	-10.6266
默然	-10.6267
一翻转	-10.627
▁虽然他	-10.6272
吃惊的	-10.6272
移	-10.6273
不解	-10.6273
的注意	-10.6278
咒语声	-10.6279
向那	-10.628
的一处	-10.6281
床	-10.6282
进阶合体	-10.6285
竟然还	-10.6288
山石	-10.6288
妖目	-10.629
水面	-10.6292
都可	-10.6297
了好一会儿	-10.6298
提出	-10.63
赶来	-10.6303
在此期间	-10.6304
的盯着	-10.6307
技	-10.6308
甲天木	-10.6308
一臂之力	-10.6308
凑巧	-10.6309
越隆	-10.6309
墨蛟	-10.6309
丘陵	-10.6311
怀	-10.6313
毒蛟	-10.6313
数寸大小	-10.6314
就把	-10.6318
喷吐	-10.6318
不好说	-10.632
聚会	-10.632
原来的	-10.6321
开口问道	-10.6322
精进	-10.6324
凡是	-10.6325
那股	-10.6328
三女	-10.6328
是吗	-10.6329
抱着	-10.633
天雷	-10.6331
身躯上	-10.6334
凝练	-10.6334
资格	-10.6336
这是什么	-10.6336
和那些	-10.6338
化为点点	-10.6338
娇	-10.6342
恩	-10.6343
有些吃惊	-10.6346
剑影	-10.6346
没有了	-10.6348
想知道	-10.6349
冰焰	-10.6353
金灿灿的	-10.6354
祖	-10.6355
本尊	-10.6355
有些诧异	-10.6356
迫	-10.6359
就化为了	-10.636
不太清楚	-10.6373
犹豫了一下	-10.6376
数千	-10.6377
徒	-10.638
再来	-10.638
▁足足	-10.6382
双手倒背	-10.6382
实际上	-10.6387
好像是	-10.6388
补	-10.64
虚空处	-10.6401
最近的	-10.6405
承认	-10.6408
晕	-10.6409
他心中	-10.641
固	-10.6411
丝丝的	-10.6411
不敢再	-10.6412
动身	-10.6413
货	-10.6413
弥漫	-10.6414
枯	-10.6414
炼神术	-10.6414
大不相同	-10.6414
结结实实	-10.6414
画轴	-10.6415
惊愕	-10.6415
秋	-10.6415
药材	-10.6415
顺便	-10.6416
缘由	-10.6416
苦笑了一声	-10.6417
接口	-10.6417
身侧	-10.6418
双目紧闭	-10.6418
单手掐诀	-10.6418
首次	-10.6418
银色火焰	-10.6418
方向一变	-10.6421
爪子	-10.6422
发作	-10.6424
门下弟子	-10.6425
听了此话	-10.6427
凝结元婴	-10.6428
▁墨大夫	-10.6429
未见	-10.6429
孔	-10.6429
不久前	-10.6436
一闪的没入	-10.6438
竟直接	-10.6439
催	-10.6445
凝固	-10.6447
之日	-10.6448
也想	-10.6448
分明	-10.645
瘦	-10.6453
人群	-10.6458
闪烁不定	-10.646
帮你	-10.6463
▁韩立正	-10.6464
此战	-10.6464
真身	-10.6469
出言	-10.6471
一把抓	-10.6473
阁楼中	-10.6477
稳稳的	-10.6478
如此多的	-10.6479
而灭	-10.6479
▁以韩立	-10.6482
伤害	-10.6485
占据了	-10.6486
也绝对	-10.6487
脖颈	-10.6489
返回了	-10.6489
一队	-10.649
有些疑惑	-10.649
安静	-10.6494
两句	-10.6495
魔甲	-10.6496
莫名的	-10.6496
一吸	-10.6497
紧闭	-10.6502
看清楚了	-10.6503
别说	-10.6506
岂不	-10.6507
己	-10.6509
但若是	-10.6509
消失在了	-10.6509
终于在	-10.6511
大意	-10.6511
看来是	-10.6512
并且还	-10.6514
炎	-10.6521
说实话	-10.6522
疾	-10.6522
初入灵界	-10.6522
-	-10.6522
陈巧倩	-10.6522
钩	-10.6522
鼠	-10.6522
缝隙	-10.6522
往空中一抛	-10.6523
重创	-10.6523
青色剑光	-10.6525
再也没有	-10.6528
的一声闷响	-10.6532
八级妖兽	-10.6533
实体	-10.6534
端坐	-10.6534
轻声	-10.6538
死死盯着	-10.6539
非常的	-10.6539
消失后	-10.654
所以才	-10.654
半分	-10.6541
二妖	-10.6544
越是	-10.6545
一落而下	-10.6549
脑后	-10.655
遗留	-10.655
魔族圣祖	-10.6559
神色一缓	-10.6561
魔影	-10.6561
密林	-10.6561
长虹	-10.6562
复	-10.657
一块块	-10.657
攻势	-10.6571
难得	-10.6574
在下也	-10.6577
那是	-10.6582
再有	-10.6586
大恩	-10.6589
不置可否	-10.6589
耗	-10.6591
圣灵	-10.6594
恐怕要	-10.6598
大多	-10.6599
一幕	-10.6601
清鸣	-10.6603
应该知道	-10.6604
看似普通的	-10.6606
那具	-10.6609
都不禁	-10.661
盒子	-10.661
找死	-10.6612
防	-10.6615
超级	-10.6617
一动下	-10.6625
斗篷	-10.6627
义	-10.6629
闭目	-10.663
杀手锏	-10.6631
据我所知	-10.6631
的洞府	-10.6631
一语不发	-10.6631
傻	-10.6631
金蛟王	-10.6631
奕姓老者	-10.6631
拉拢	-10.6631
裂风兽	-10.6631
凶险	-10.6632
利爪	-10.6632
凑齐	-10.6633
百余里	-10.6633
逃命	-10.6634
之躯	-10.6634
是我们	-10.6635
神通广大	-10.6635
如常	-10.6635
血河	-10.6637
吸入了	-10.6638
基本上	-10.664
两旁	-10.6643
下巴	-10.6643
口飞剑	-10.6645
两次	-10.6646
闪动间	-10.6649
伸	-10.6656
韩立神色不变	-10.6656
上千	-10.6657
▁要不是	-10.6658
远离	-10.6661
坐着	-10.6666
▁不知过了多久	-10.667
摄到了手中	-10.6673
修成	-10.6673
可不	-10.6678
一聚	-10.6679
了两句	-10.668
每隔	-10.6681
这丫头	-10.6682
正有	-10.6683
▁无论	-10.6684
大感兴趣	-10.6688
声大起	-10.6689
一干人	-10.669
▁见此情形	-10.6695
交织闪烁	-10.6697
能在	-10.6698
传闻中	-10.6698
二十余丈	-10.6699
到达	-10.6699
不太好	-10.67
露出几分	-10.6703
柔	-10.6704
仿佛被	-10.6706
韩立手中	-10.671
没关系	-10.6715
铭印	-10.6721
不会有	-10.6727
会出现	-10.6727
例	-10.6729
罩壁	-10.673
慢慢的	-10.673
的位置	-10.6733
速	-10.6733
架	-10.6736
凭空浮现	-10.6737
提及	-10.6737
怨	-10.6738
吕	-10.6739
奇寒	-10.6739
洗	-10.6739
旋转	-10.674
午	-10.6741
埋伏	-10.6741
咽	-10.6741
元武国	-10.6741
大惊失色	-10.6741
怔住了	-10.6741
说完此话	-10.6741
疑问	-10.6742
爆裂了开来	-10.6742
寒芒	-10.6742
光景	-10.6743
的上空	-10.6743
十余里	-10.6743
若有若无的	-10.6745
看过	-10.6745
老家伙	-10.6745
握	-10.6746
灵具	-10.6748
盆地	-10.6748
不成问题	-10.6749
心境	-10.675
为之一	-10.6752
帮手	-10.6753
得意	-10.6753
门中	-10.6755
不再理会	-10.6756
几位长老	-10.6756
动怒	-10.6757
灰濛濛的	-10.6757
死了	-10.676
不堪	-10.6766
源	-10.6766
一头扎进了	-10.6769
我三人	-10.677
放着	-10.677
▁只见在	-10.6773
让它们	-10.6775
青霞	-10.6775
不等	-10.6777
名头	-10.6778
也不过是	-10.6779
一绕	-10.6782
大模大样的	-10.6783
唤	-10.6787
手掌一翻	-10.6789
渡过	-10.6796
呈现	-10.6799
霹雳	-10.6801
▁这名	-10.6806
不低	-10.6807
万丈	-10.6811
太好了	-10.6811
大洞	-10.6812
神色平静	-10.682
▁宝花	-10.6822
赫然有	-10.6823
而他	-10.6826
淡蓝色	-10.6826
巨石	-10.6826
辨认	-10.6827
慌	-10.6828
则有	-10.6829
伙	-10.6832
佛	-10.6833
飞卷	-10.6836
就没入	-10.6837
还不如	-10.6839
率	-10.6842
特	-10.6843
叹息	-10.6843
无声	-10.6844
一只只	-10.6845
障壁	-10.6845
半月	-10.6846
掩	-10.6848
话语中	-10.6849
予	-10.6851
寥寥无几	-10.6852
眉头微皱	-10.6852
嘴角一翘	-10.6852
琉璃	-10.6852
自顾自的	-10.6852
圭姓男子	-10.6852
禁锢	-10.6852
瞳孔一缩	-10.6852
似乎是	-10.6852
凶猛	-10.6854
隐约可见	-10.6854
当年的	-10.6856
即使是	-10.6857
手心处	-10.6858
带来	-10.6859
▁再过	-10.686
从远处	-10.686
徒弟	-10.686
一扫而去	-10.686
无奈之下	-10.6864
没事	-10.6867
相反	-10.6867
三座	-10.6875
探出	-10.6878
模糊不清	-10.6879
▁随后他	-10.688
这句话	-10.6881
掉头	-10.6882
却一下	-10.6884
▁一阵	-10.6888
一连串	-10.6891
▁此人	-10.6892
都不会	-10.6894
五只	-10.6896
角落	-10.6904
超过	-10.6906
从地下	-10.6906
有些好奇	-10.6907
伤势	-10.691
竟化为	-10.691
几乎是	-10.6914
声传来	-10.6915
挨	-10.6916
脸色一下	-10.6918
遁去	-10.6921
就更	-10.6923
对那	-10.6927
六只	-10.6934
立刻就	-10.6935
潜	-10.6937
幅	-10.6942
两下	-10.6946
突	-10.6949
阴沉了下来	-10.6949
传说中的	-10.695
出声	-10.6951
兴奋的	-10.6954
吴	-10.6959
的古怪	-10.696
始祖	-10.696
不愿意	-10.6961
深深	-10.6961
斑	-10.6961
流传	-10.6962
沉重	-10.6962
巴掌大	-10.6962
大损	-10.6962
闹	-10.6964
欲	-10.6964
祝	-10.6964
伪仙儡	-10.6964
黄元子	-10.6964
毛茸茸	-10.6964
天鼎宫	-10.6964
大庚剑阵	-10.6964
苍坤上人	-10.6964
狞笑	-10.6965
望了韩立一眼	-10.6965
此禁制	-10.6965
坚硬	-10.6965
强烈	-10.6965
神智	-10.6966
就不知	-10.6967
身怀	-10.6968
面色一变	-10.6968
破阵	-10.6969
遁光一敛	-10.697
手中之物	-10.6971
砰砰	-10.6972
凝结	-10.6974
不屑	-10.6977
▁韩立虽然	-10.6978
飞升修士	-10.6978
任何人	-10.6978
情景	-10.698
沉睡	-10.6981
一堆	-10.6982
听得	-10.6982
眼皮	-10.6983
顺着	-10.6983
每一	-10.6988
落了下来	-10.699
▁青年	-10.6991
两张	-10.6991
现在就	-10.6991
收缩	-10.6994
不知不觉	-10.6996
生意	-10.6997
▁见到	-10.7004
▁心中	-10.7005
有多	-10.7007
脸庞	-10.7012
虚空一点	-10.7028
袖口中	-10.7028
有一名	-10.7029
低下	-10.7034
拿着	-10.7034
银白色	-10.7034
有些迟疑	-10.7037
蓦然出现在了	-10.704
和以前	-10.7044
床上	-10.7045
交易会	-10.7048
▁原来	-10.7049
跌落	-10.7051
魔族男子	-10.7053
凝重之色	-10.7055
真人	-10.7056
嗡嗡	-10.7062
各异	-10.7064
的元神	-10.7067
大势力	-10.7068
他身上	-10.7069
几率	-10.7072
秀	-10.7072
陌生的	-10.7073
敬畏	-10.7073
叉	-10.7074
腾	-10.7076
铺	-10.7077
君	-10.7077
梭	-10.7077
啸	-10.7078
韩小子	-10.7078
一时半刻	-10.7078
报酬	-10.7078
雷鸣大陆	-10.7078
绿衫女子	-10.7079
抓到了手中	-10.7079
潜力	-10.708
矿	-10.708
子弟	-10.708
小王爷	-10.708
动容	-10.7082
眼角	-10.7086
许久	-10.7087
默默的	-10.7087
轻笑了起来	-10.7088
天凤	-10.7092
味道	-10.7093
三首	-10.7093
了数倍	-10.7094
药瓶	-10.7094
第一层	-10.7095
知道对方	-10.7095
显然也	-10.7096
限	-10.7096
白发老者	-10.7097
给自己	-10.7102
截然不同	-10.7103
屋中	-10.7107
听了韩立	-10.7108
作出	-10.7109
亲眼	-10.7111
让我们	-10.7111
醒来	-10.7115
落入了	-10.7116
他虽然	-10.7117
一下被	-10.7119
身前处	-10.7129
也未	-10.7135
魔族大汉	-10.7138
莫非是	-10.7138
金色符文	-10.7138
模糊的	-10.7139
你先	-10.7142
有些意思	-10.7143
一时无法	-10.7143
我倒是	-10.7145
略一模糊	-10.7148
不相信	-10.7149
一层层的	-10.715
灵木	-10.715
▁二人	-10.7152
击中	-10.7155
丈许大的	-10.7157
记得	-10.7159
我知道	-10.716
年轻女子	-10.716
护住	-10.7161
此火	-10.7164
要说	-10.7166
想让	-10.7173
面现	-10.7178
一个小	-10.7178
布下了	-10.7181
▁这些人	-10.7181
本来	-10.7183
这些话	-10.7185
瞧	-10.7186
骚动	-10.7188
忍	-10.7189
若有	-10.719
但如今	-10.7191
拐	-10.7192
古朴	-10.7193
狂喜	-10.7193
玄青子	-10.7193
财	-10.7193
素	-10.7193
真灵世家	-10.7194
背上	-10.7194
运转	-10.7195
相告	-10.7195
▁韩立眉头一皱	-10.7195
散发而出	-10.7196
满意的点点头	-10.7196
第二层	-10.7197
不再迟疑的	-10.7197
长啸	-10.72
天鹏人	-10.7201
巨网	-10.7201
生灵	-10.7202
金网	-10.7202
半个时辰后	-10.7206
气浪	-10.7207
同阶修士	-10.7209
想到了什么	-10.721
甩	-10.7211
老实	-10.7214
走了过来	-10.7217
若是如此的话	-10.7218
▁一个	-10.7221
看看能否	-10.7222
蕴含的	-10.7228
焦虑	-10.7231
一声惊天动地的巨响	-10.7232
舟	-10.7233
七八丈	-10.7236
鼻中	-10.7241
鬼影	-10.7244
应该不会	-10.7251
外边	-10.7254
内丹	-10.7256
的差不多了	-10.7258
▁巨大	-10.7259
凭空浮现而出	-10.7262
▁另外	-10.7266
全都被	-10.7267
黄袍	-10.7271
陷	-10.7274
闪动中	-10.7275
三角	-10.7275
将那些	-10.7275
帮我	-10.7277
知道自己	-10.7281
辆	-10.7283
的没入	-10.7289
获	-10.7291
简直	-10.7294
向对面	-10.7294
红光一闪	-10.73
果断	-10.73
目光朝	-10.7301
初期	-10.7302
唯一的	-10.7303
蟾	-10.7303
小路	-10.7305
扬	-10.7308
汗	-10.7308
耸	-10.7309
施了一礼	-10.7309
试试	-10.7309
光头大汉	-10.731
竟是一名	-10.7311
白狐	-10.7312
杀机	-10.7312
绿焰	-10.7312
灵婴	-10.7313
一斩而下	-10.7313
席卷而去	-10.7314
此消息	-10.7315
一模一样	-10.7317
金甲	-10.7318
一飞	-10.7318
鬼王	-10.7318
放出的	-10.732
在路上	-10.7326
▁其实	-10.7328
金影	-10.7328
方便	-10.7328
脸带	-10.7333
奇异	-10.7334
在远处	-10.7335
一个人	-10.7335
大松了一口气	-10.7335
一截	-10.7336
瞬间被	-10.734
空间波动	-10.7343
转首冲	-10.7345
天色	-10.7345
猛然间	-10.7346
▁看到	-10.7348
碎石	-10.7349
一跳	-10.735
此问	-10.7351
几乎在	-10.7353
出什么	-10.7353
才可以	-10.7355
兽皮	-10.7362
若真是	-10.7363
城池	-10.7364
就是那	-10.7365
更好	-10.7367
那时	-10.7367
属于	-10.7368
一件事情	-10.7368
望向韩立	-10.7371
三头六臂的	-10.7372
那两名	-10.7372
扑来	-10.7373
上门	-10.7374
足以让	-10.7375
退出了	-10.7377
差不多了	-10.7378
一到	-10.7378
这倒是	-10.7378
很快就	-10.7379
▁这二人	-10.7381
的名头	-10.7382
厅内	-10.7385
有了决定	-10.7387
在魔界	-10.7388
收了	-10.7391
手法	-10.7392
欺	-10.7395
受损	-10.7397
他还	-10.7407
一拳	-10.7411
此东西	-10.7418
你能	-10.742
自觉	-10.7423
茧	-10.7424
血鸦城	-10.7425
折	-10.7425
范	-10.7425
蚕	-10.7426
了一点	-10.7426
伪	-10.7427
擦	-10.7427
巢穴	-10.7427
勾	-10.7427
金毛巨猿	-10.7427
锦帕	-10.7427
昔日	-10.7427
妙鹤	-10.7427
惊怒交加	-10.7427
慎重	-10.7427
恭喜	-10.7427
暴涨	-10.7427
清脆	-10.7428
肚子	-10.7428
感情	-10.7428
药草	-10.743
稳定	-10.743
进攻	-10.7432
柱子	-10.7432
韩立脸色	-10.7433
两枚	-10.7433
形象	-10.7434
此阵	-10.7434
幻阵	-10.7435
兽类	-10.7435
三颗头颅	-10.7435
合力	-10.7436
的危险	-10.7437
下落	-10.7438
在地上	-10.7439
小辈	-10.744
整只	-10.7441
白发	-10.7443
黑白	-10.7444
精心	-10.7444
韩立二人	-10.745
在了一起	-10.7451
不对劲	-10.7454
问了	-10.7456
达	-10.7457
这些事情	-10.7458
既然如此	-10.7461
堵	-10.7462
倒射	-10.7463
丈许长	-10.7464
灵花	-10.7465
冷冰冰的	-10.7471
▁更	-10.7474
▁但这时	-10.7476
拿起	-10.7478
▁按照	-10.7482
年轻人	-10.7484
这种情形	-10.7485
陆	-10.7499
十几个	-10.75
街道上	-10.7503
一展	-10.7505
互望了一眼后	-10.7505
整片	-10.7512
甲虫	-10.7514
一线	-10.7515
声大作	-10.7515
脸色苍白	-10.7519
的长老	-10.752
也绝不会	-10.7522
肩	-10.7526
痕迹	-10.7531
哪还	-10.7533
痕	-10.7535
罪	-10.7535
空间中	-10.7537
锋利	-10.7538
戏	-10.7541
页	-10.7541
答道	-10.7542
徐	-10.7543
的把握	-10.7544
载	-10.7545
韩兄弟	-10.7545
仿制	-10.7545
糟	-10.7546
古剑门	-10.7546
姑且	-10.7546
蜉蝣族	-10.7546
万花夫人	-10.7546
金刚诀	-10.7546
尸魈	-10.7546
阳鹿	-10.7546
撞击到了一起	-10.7546
结丹初期	-10.7546
尖利	-10.7547
金属	-10.7548
身高	-10.7548
残尸	-10.7548
雷劫	-10.7548
脸现	-10.7549
头也不回的	-10.755
▁除了	-10.755
张铁	-10.7551
鼻子	-10.7551
三个月	-10.7552
挑战	-10.7552
▁韩立望着	-10.7556
逃之夭夭	-10.756
影子	-10.7563
雾海中	-10.7565
之战	-10.7568
自称	-10.757
体长	-10.7573
不稳	-10.7576
交换会	-10.7576
漩涡中	-10.7578
姓韩	-10.758
态	-10.7582
陷入了	-10.7588
沉默	-10.759
置	-10.759
能轻易	-10.7592
留下了	-10.7593
型	-10.7594
金光闪动	-10.7595
再一张口	-10.7597
未动	-10.7598
直往	-10.7598
竟然有	-10.7601
变大	-10.7601
一道人影	-10.7602
上路	-10.7602
翻滚不定	-10.7604
这些魔族	-10.7606
遁入	-10.7609
▁一听	-10.761
叫声	-10.761
多说什么	-10.7613
上一次	-10.7616
你知道	-10.7621
如此说道	-10.7625
是何人	-10.7625
暗算	-10.7626
能得到	-10.7627
击出	-10.7631
中心处的	-10.7635
智	-10.7636
闷	-10.7636
不大的	-10.7639
头生	-10.764
中人	-10.7642
如初	-10.7642
传授	-10.7649
期间	-10.7652
胸有成竹	-10.7655
此等	-10.766
矛	-10.766
大有深意的	-10.7661
在其内	-10.7662
恨	-10.7664
傲	-10.7665
寻常	-10.7665
芝	-10.7665
一小会儿	-10.7666
分为	-10.7666
饭	-10.7666
百巧院	-10.7666
一分为二	-10.7666
嘎然而止	-10.7666
梵圣金身	-10.7666
剧痛	-10.7666
渡劫	-10.7666
千里	-10.7667
男修	-10.7668
环境	-10.7668
本命法宝	-10.7669
大口一张	-10.767
通知	-10.767
单手一招	-10.767
冒然	-10.7671
血焰	-10.7674
三种	-10.7676
化为一团团	-10.7679
的强大	-10.7681
心中一喜	-10.7681
高阶存在	-10.7682
冲下方	-10.7685
很大	-10.7688
韩立目光一闪	-10.7688
▁突然	-10.7688
数目	-10.7695
也未免太	-10.7697
黑点	-10.7697
数件	-10.77
被这些	-10.77
从四面八方	-10.77
灿灿	-10.7701
一看就是	-10.7703
一回	-10.7706
山洞	-10.7707
竟然能	-10.7707
并不太	-10.7707
极品灵石	-10.7714
不经意的	-10.7715
多大	-10.7716
虫兽	-10.7718
此神通	-10.772
溃散消失了	-10.7721
用力	-10.7728
脸上不禁	-10.7731
傀儡兽	-10.7732
了一口	-10.7735
没有多久	-10.7736
踪迹	-10.7737
想想	-10.7738
倒也不	-10.7739
我虽然	-10.7739
丽	-10.7744
尚未等	-10.7745
这几名	-10.7747
并马上	-10.7748
话语声	-10.7748
略一沉吟	-10.775
一眼就	-10.7751
夫	-10.7754
高约	-10.7754
玉手	-10.7754
▁此兽	-10.7755
▁整个	-10.7755
差不多的	-10.7761
自然就	-10.7765
足可	-10.7766
心中却	-10.7768
圣祖化身	-10.7772
可有	-10.7773
镶嵌	-10.7776
见到了	-10.7776
不会再	-10.7781
凝重的说道	-10.7782
碍	-10.7782
韩立已经	-10.7783
各派	-10.7783
湖面	-10.7784
无力	-10.7785
壳	-10.7786
涌现	-10.7786
口中一声	-10.7786
京	-10.7787
记名弟子	-10.7788
弥补	-10.7788
盈	-10.7788
不约而同的	-10.7788
搭	-10.7788
果儿	-10.7788
麻衣少女	-10.7788
签	-10.7788
赤融族	-10.7788
;	-10.7788
亿	-10.7788
堪堪	-10.7788
天澜圣女	-10.7788
赤裸	-10.7788
惊惧	-10.7789
欢喜	-10.7789
创立	-10.7789
手指一弹	-10.7789
冰魄仙子	-10.7789
鬼灵门门主	-10.7789
第一个	-10.7792
据点	-10.7793
交流	-10.7794
墨绿色	-10.7794
稀有	-10.7796
▁韩立双目一眯	-10.7796
站了起来	-10.7797
回了一句	-10.7798
不甘	-10.7798
赫然正是	-10.7799
紧追	-10.78
高阶妖兽	-10.7801
金刃	-10.7801
的某个	-10.7803
根本不会	-10.7805
却已经	-10.7806
最多	-10.7807
皮毛	-10.7809
的中年人	-10.781
朝下方	-10.7811
渐渐的	-10.7813
的虚空中	-10.7813
声一响	-10.7814
短时间	-10.7815
的符箓	-10.7815
了回去	-10.782
是何等	-10.7821
没有多大	-10.7825
身后处	-10.7827
一直在	-10.7829
应该也	-10.783
拳头大	-10.7838
此事了	-10.7839
他们几人	-10.7848
此空间	-10.7848
明显比	-10.785
的数量	-10.7852
有这种	-10.7853
指环	-10.7853
清楚了	-10.7856
惨叫声	-10.7856
瞒过	-10.7857
小钟	-10.7859
手上的	-10.7859
睁开	-10.7861
小城	-10.7862
让此女	-10.7865
惊人之极	-10.7869
出事	-10.787
数日后	-10.7874
两块	-10.7875
没有人	-10.7876
一连串的	-10.788
将神念	-10.788
盯向	-10.788
提到	-10.7882
讲道	-10.7886
举	-10.7886
进阶到	-10.7892
潮	-10.7897
敲	-10.79
舞	-10.7901
他还是	-10.7904
寄	-10.7906
告	-10.7907
称谢	-10.7908
解开	-10.7908
之行	-10.7909
带走	-10.7911
意料	-10.7911
输	-10.7911
资源	-10.7911
糊涂	-10.7911
幻啸沙漠	-10.7911
秃眉大汉	-10.7912
葛天豪	-10.7912
筋	-10.7912
安远城	-10.7912
期盼	-10.7912
翠绿欲滴	-10.7912
汇合	-10.7912
游历	-10.7912
热闹	-10.7912
怪蛾	-10.7912
蛮荒世界	-10.7912
天雷竹	-10.7912
度劫	-10.7912
热情	-10.7914
▁听了	-10.7914
相隔	-10.7916
▁一股	-10.7916
根据	-10.7916
反问了一句	-10.7918
跑掉	-10.7919
月仙子	-10.7919
不好意思	-10.792
还不知道	-10.792
脱困	-10.7921
合体存在	-10.7921
而亡	-10.7922
融化	-10.7923
佛门	-10.7924
一阵模糊	-10.7925
光环	-10.7925
血灵	-10.7926
有些恍然	-10.7932
传声	-10.7934
了几	-10.7934
即使有	-10.7938
占了	-10.7938
对我等	-10.7938
一笑的说道	-10.7942
略一思量后	-10.7945
轻轻的	-10.7952
狂击	-10.7953
属下	-10.7954
我们三人	-10.7958
辛	-10.7958
▁这也难怪	-10.796
一开始就	-10.7963
不是普通	-10.7965
不会让	-10.7965
这不是	-10.7967
惜	-10.7969
的凡人	-10.7971
青光闪动	-10.7973
怀中	-10.7973
父	-10.7975
的迹象	-10.7975
体外	-10.7978
惊疑不定	-10.7978
区区的	-10.7978
▁所以	-10.798
制住	-10.7981
收到	-10.7985
正和	-10.7985
有理	-10.7986
别看	-10.7987
挤	-10.7993
恐惧	-10.7997
结丹期的	-10.7997
进入到了	-10.7998
筑基期的	-10.7998
之路	-10.7999
抹	-10.8001
回来了	-10.8006
就不怕	-10.8009
怎敢	-10.801
窜	-10.8012
非但没有	-10.8012
白光中	-10.8013
但马上就	-10.8014
合体初期	-10.8014
讶然	-10.8017
等着	-10.8018
在天渊城	-10.8018
看来这	-10.8019
开始了	-10.8021
很可能	-10.8022
深渊	-10.8023
既然你	-10.8028
等我	-10.8029
光滑	-10.8029
萧	-10.803
秀丽	-10.8033
纳	-10.8035
含糊	-10.8036
巡逻	-10.8036
按理说	-10.8037
黄发大汉	-10.8037
抵抗	-10.8037
龟壳	-10.8037
金篆文	-10.8037
态度	-10.8037
剩余	-10.8038
顶峰	-10.8038
圈套	-10.8038
呼吸	-10.8038
声大响	-10.8039
银光闪闪	-10.8039
金霞	-10.804
封闭	-10.804
摸了摸	-10.804
理由	-10.8041
以来	-10.8043
更别说	-10.8044
修行	-10.8044
强敌	-10.8044
速度之快	-10.8044
顶阶法器	-10.8045
留下的	-10.8046
玄天	-10.8051
然后才	-10.8056
区区一名	-10.8057
厅	-10.8057
张开	-10.8057
深厚	-10.8057
扭头	-10.8057
亲手	-10.8058
他又	-10.8059
天云	-10.8061
逃离	-10.8066
组成的	-10.8069
快些	-10.8073
黑色小山	-10.8073
暗藏	-10.8074
外形	-10.8075
日后	-10.8077
的一声轻响	-10.8077
枯瘦老者	-10.8081
一杯	-10.8082
鼎盖	-10.8083
是第一次	-10.8084
一言不发的	-10.809
十三	-10.8091
化为一层	-10.8094
却突然	-10.8095
▁见	-10.8096
的确有些	-10.8096
灵血	-10.8098
紧接着	-10.8103
并有	-10.8104
弹出	-10.8106
门口	-10.8112
名声	-10.8112
昏	-10.8112
但总算	-10.8116
如此的说道	-10.8119
▁三人	-10.812
竟从	-10.8121
一问	-10.8122
正道	-10.8123
飞回	-10.8125
某一	-10.8126
阻	-10.8129
看你	-10.8134
青铜	-10.8135
夫妇	-10.8136
脸色阴沉	-10.814
得以	-10.8143
也足以	-10.8144
那面	-10.8144
这里是	-10.8145
后果	-10.8153
八名	-10.8153
身家	-10.8155
致	-10.8156
貌	-10.8157
锦袍	-10.8157
你说的	-10.8157
妹	-10.8163
匆忙	-10.8163
倾	-10.8163
天晶真人	-10.8163
花石老祖	-10.8163
田琴儿	-10.8163
清平道人	-10.8163
南宫	-10.8163
眉头微微一皱	-10.8163
玄天果实	-10.8163
脱口	-10.8163
封岳	-10.8164
皮肤	-10.8164
血腥之气	-10.8164
坠落而下	-10.8164
轰隆	-10.8164
阶段	-10.8164
恢复了正常	-10.8165
涌现而出	-10.8166
矿石	-10.8166
带队	-10.8168
太阳	-10.817
还可以	-10.8172
灰气	-10.8173
缺少	-10.8174
刺激	-10.8175
两件宝物	-10.8176
到哪里去	-10.8176
途中	-10.8176
圣祖大人	-10.8178
双头	-10.8179
并不知道	-10.818
飘动	-10.8181
面孔上	-10.8181
想起	-10.8182
种下	-10.8183
惊喜之色	-10.8184
血红色	-10.8186
▁而这	-10.8188
无法做到	-10.8188
片刻功夫	-10.8189
我们几人	-10.8192
并不算	-10.8192
一段	-10.8193
的力量	-10.8195
看去	-10.8195
一粒	-10.8195
无语了	-10.8199
成熟	-10.8205
的争斗	-10.8206
一颤的	-10.8207
一瓶	-10.8208
进入其中	-10.8209
另外两名	-10.821
击到了	-10.8213
盒	-10.8214
银色电弧	-10.8225
不甘心	-10.8228
秦家	-10.8229
但口中	-10.8232
筑基成功	-10.8232
你真	-10.8233
增	-10.8234
难以置信的	-10.8234
没有办法	-10.8235
瓶中	-10.8237
还真的	-10.8241
急忙将	-10.8243
墨大夫的	-10.8244
手掌一翻转	-10.8245
母亲	-10.8247
神秘的	-10.8247
瓶口	-10.8247
象	-10.8251
根本是	-10.8252
而这	-10.8254
的巨响	-10.8254
只要不是	-10.8258
魔气中	-10.8259
种族	-10.8259
这种事情	-10.8259
自然不敢	-10.8263
玩	-10.8265
一道白光	-10.8266
身法	-10.8266
青色光幕	-10.8267
听到这里	-10.8267
那根	-10.8269
奇效	-10.8271
见过的	-10.8271
闯入	-10.8272
减	-10.8272
傀儡术	-10.8277
简	-10.8281
危	-10.8284
▁其余	-10.8286
虽然是	-10.8286
微微的	-10.8286
宫装	-10.8287
幼	-10.8289
岳	-10.8291
续	-10.8291
凹	-10.8291
狡	-10.8291
元气大伤	-10.8291
许芊羽	-10.8291
忽暗忽明	-10.8291
冠	-10.8291
呲啦	-10.8291
青龙	-10.8292
破绽	-10.8292
滋味	-10.8292
横跨	-10.8292
担任	-10.8292
踪影全无	-10.8292
顶端	-10.8292
蟹兄	-10.8293
狂舞	-10.8293
行迹	-10.8293
最重要的	-10.8293
冷哼了一声	-10.8294
但因为	-10.8295
五色光焰	-10.8295
困难	-10.8296
家师	-10.8297
见到此景	-10.8297
双目一亮	-10.8298
小瞧	-10.8298
看上	-10.8299
组	-10.8299
的背影	-10.83
神魂	-10.83
小友	-10.8302
还敢	-10.8302
低阶弟子	-10.8303
▁最后	-10.8303
黑洞	-10.8304
不动了	-10.8304
放松	-10.8306
就仿佛	-10.8306
飞天	-10.8307
风声	-10.8308
袖袍中	-10.831
合适的	-10.8311
小盾	-10.8312
后悔	-10.8315
吐出	-10.8315
飞驰	-10.8315
有些发	-10.8315
数十道	-10.8316
整齐	-10.8316
两具	-10.8316
一探	-10.8319
接着又	-10.8324
四道	-10.8325
见到韩立	-10.8326
身具	-10.8338
微微一动	-10.8338
的物品	-10.834
得知	-10.8344
长长的	-10.8344
简单的	-10.8346
拳头大小	-10.8346
自然没有	-10.8348
碰上	-10.835
一出	-10.8352
手臂一动	-10.8353
魔云	-10.8357
数百里	-10.8359
满口	-10.8359
呆在	-10.8359
的价格	-10.8361
背后双翅	-10.8363
▁几乎与此同时	-10.8365
竟没有	-10.8371
这般模样	-10.8371
不是普通的	-10.8373
情形下	-10.8377
他是	-10.8385
联	-10.8386
悬浮在了	-10.8387
不用再	-10.839
损	-10.8399
之远	-10.84
的解释道	-10.8402
口中传出	-10.8408
修炼过	-10.8408
冰魄	-10.8408
大批	-10.841
这对	-10.841
金色漩涡	-10.8411
显出了	-10.8411
这枚	-10.8411
已是	-10.8413
边缘	-10.8416
八级	-10.8416
的空间	-10.8418
烧	-10.8418
商	-10.8419
也就是	-10.8419
娘	-10.842
栽	-10.8421
深施一礼	-10.8421
放在心上	-10.8421
天道盟	-10.8421
想都不想的	-10.8421
鲁卫英	-10.8421
恍然大悟	-10.8421
潜伏	-10.8421
幼童	-10.8421
血天大陆	-10.8421
亲眼目睹	-10.8422
猛烈	-10.8422
收购	-10.8422
执事	-10.8422
胡月	-10.8422
告知	-10.8422
圆钵	-10.8422
展现	-10.8423
见此情景	-10.8423
渊源	-10.8423
宣布	-10.8424
一探而出	-10.8424
低语	-10.8424
激射而下	-10.8426
难道你	-10.8427
看到此幕	-10.8428
到处都是	-10.843
树林	-10.8431
苦笑了起来	-10.8433
高温	-10.8435
披	-10.8437
如此惊人	-10.8444
理会	-10.8445
三十六	-10.8445
这番话	-10.845
波浪	-10.845
从中间	-10.845
如此想	-10.8455
然后在	-10.8457
完全是	-10.8458
是什么人	-10.8458
减少	-10.8462
神色一变	-10.8464
银狼	-10.8465
韩立望着	-10.8467
灵术	-10.8468
上一些	-10.8471
竟瞬间	-10.8472
▁儒生	-10.8473
飞射出	-10.8474
神色一松	-10.8476
中心	-10.8478
出现在了那里	-10.8479
数万	-10.848
自己则	-10.8482
对于	-10.8484
好奇的	-10.8484
的确有	-10.8491
的一幕出现了	-10.8493
冷眼	-10.8495
属	-10.8495
将整座	-10.8497
途	-10.8498
城头	-10.8505
安稳	-10.8509
根本不可能	-10.851
狼首	-10.8512
五个	-10.8512
儒	-10.8526
▁在他	-10.8528
的储物袋	-10.853
还是不要	-10.8531
甘	-10.8532
灭杀掉	-10.8535
表现	-10.8536
驾驭	-10.8538
路程	-10.854
展开	-10.8541
▁经过	-10.8544
弯	-10.855
无法动弹	-10.8551
恍	-10.8551
颇为的	-10.8552
泥	-10.8552
是何种	-10.8552
布阵器具	-10.8553
不以为然	-10.8553
真灵之血	-10.8553
大头怪人	-10.8553
清澈	-10.8553
囊	-10.8553
合欢老魔	-10.8553
击毙	-10.8553
倒霉	-10.8553
稳妥	-10.8554
残缺	-10.8554
玄骨上人	-10.8554
仰首	-10.8554
批	-10.8554
保护	-10.8554
那片	-10.8554
光华一敛	-10.8554
沉思	-10.8554
古镜	-10.8555
双臂	-10.8555
披发男子	-10.8555
你以为	-10.8555
看到韩立	-10.8556
韩立自然不会	-10.8556
黑域	-10.8556
厉师兄	-10.8557
巨鹰	-10.8557
合作	-10.8558
流动	-10.8559
大喝一声	-10.8559
外星海	-10.8559
定了	-10.8562
一转首	-10.8563
灵茶	-10.8563
坐化	-10.8563
了小半	-10.8565
▁一道	-10.8565
的路程	-10.8566
目光往	-10.8567
二话不说	-10.8567
眯	-10.857
范围内	-10.857
省得	-10.8571
没入其中	-10.8575
真仙界	-10.8578
竟然在	-10.8582
拼命的	-10.8584
若是有	-10.8593
不便	-10.8597
风雷	-10.86
亮起	-10.8601
经验	-10.8602
小丫头	-10.8604
说不出	-10.8605
禽	-10.8607
恢复如初	-10.8611
也从	-10.8617
在手	-10.8618
骇然之色	-10.8619
先生	-10.862
有用	-10.8621
迎风	-10.8621
不至于	-10.8624
山顶	-10.863
你可	-10.8631
石塔	-10.8632
还是先	-10.8633
泄	-10.8634
疑	-10.864
第一次见到	-10.8641
虽然心中	-10.8644
不知是否	-10.8648
区区一个	-10.8649
称是	-10.8649
婴	-10.865
手心	-10.865
看破	-10.8651
意识	-10.8653
拿到	-10.8653
生活	-10.8663
▁韩立听了这话	-10.8663
袖	-10.8665
只在	-10.8665
黑色符文	-10.8665
在城中	-10.8667
冲那	-10.8674
地问道	-10.8675
不以为意	-10.8675
之强	-10.8676
一扭首	-10.868
外海	-10.8681
给道友	-10.8682
放开	-10.8683
愈	-10.8684
埋	-10.8684
佩	-10.8684
优	-10.8686
野狼帮	-10.8686
洒	-10.8686
碗	-10.8686
黯然	-10.8686
慕兰草原	-10.8686
僵持	-10.8686
心念急转	-10.8686
韩立身边	-10.8686
沼泽	-10.8687
厮杀	-10.8687
遁速之快	-10.8687
寂静无声	-10.8687
配方	-10.8688
提炼	-10.869
其实是	-10.869
空无一人	-10.8691
管事	-10.8691
名称	-10.8692
筑基后期	-10.8692
身边的	-10.8694
掏出了	-10.8694
半步	-10.8694
明日	-10.8697
站到了	-10.8699
对韩立来说	-10.8701
其他几名	-10.8701
不动声色的说道	-10.8706
一大	-10.8706
以下	-10.8715
一声哀鸣	-10.8715
前端	-10.8719
等阶的	-10.8719
魔石	-10.872
莫名	-10.8723
转脸	-10.8723
炼虚后期	-10.8725
一道青虹	-10.8729
石壁上	-10.8731
五名	-10.8736
何时	-10.8739
眼内	-10.8745
殿内	-10.8745
叫出了	-10.8747
滚滚的	-10.8751
眨了眨眼睛	-10.8756
闭上	-10.8761
每次	-10.8768
此符	-10.8768
天外	-10.8769
筑基中期	-10.877
有数	-10.8773
这两	-10.8774
车中	-10.8778
融入	-10.8779
对他们	-10.878
一声脆响	-10.8785
抽出	-10.8788
级别	-10.8788
毒手	-10.879
云团	-10.8791
我这就	-10.8798
一小半	-10.88
动了一下	-10.8803
大叫	-10.8804
这些傀儡	-10.8805
域	-10.8808
来此	-10.881
围绕	-10.8817
炼制而成	-10.8819
锥	-10.8819
到来	-10.882
里许	-10.882
氏	-10.882
解决了	-10.8821
痴	-10.8821
始印之地	-10.8821
嘛	-10.8821
找上门来	-10.8821
长春功	-10.8821
血牙米	-10.8821
车骑恭	-10.8821
白梦馨	-10.8821
凝滞	-10.8821
这话是什么意思	-10.8821
雷万鹤	-10.8821
搞	-10.8821
祖师	-10.8822
工作	-10.8822
线索	-10.8822
商谈	-10.8822
守护	-10.8823
海底	-10.8825
巨鹏	-10.8826
就彻底	-10.8826
绿雾	-10.8827
不是说	-10.8828
魔像	-10.883
出了一个	-10.883
辈	-10.8833
的要求	-10.8833
一声长啸	-10.8834
提高	-10.8835
贴身	-10.8836
噬金虫王	-10.8837
这么一位	-10.8837
放进	-10.8838
集中	-10.884
▁因此	-10.8841
兄台	-10.8843
卷入其中	-10.8844
第二卷	-10.8851
景色	-10.8855
入其中	-10.8857
的神秘	-10.8858
不清	-10.8859
清晰异常	-10.8863
都为之	-10.8864
下场	-10.8865
远远的	-10.8866
火鸦	-10.8869
又说道	-10.887
自认	-10.8872
在此处	-10.8873
踏上	-10.8873
令人	-10.8879
在一片	-10.8883
言道	-10.8885
立刻将	-10.8887
拿来	-10.8887
森森	-10.8888
另一边的	-10.8889
拇指大小	-10.889
一卷之下	-10.889
仙路	-10.8896
一晃下	-10.8902
其中一名	-10.8903
但片刻后	-10.8904
十余年	-10.8906
站起	-10.8907
更不会	-10.8907
悬浮在空中	-10.8908
恶狠狠的	-10.8911
禁制中	-10.8912
寸寸	-10.8913
状的	-10.8915
的具体	-10.8915
发亮	-10.8916
已被	-10.8917
修炼到了	-10.892
几张	-10.892
想将	-10.892
有资格	-10.8923
我们人族	-10.8924
往回	-10.8926
来人	-10.8926
顿时一股	-10.8928
灵纹	-10.893
就自行	-10.8934
亡	-10.8939
根本没	-10.894
花树	-10.8941
椅	-10.8942
▁韩立没有	-10.8945
大部分人	-10.8947
活了	-10.8947
出一个	-10.8947
淡淡一笑	-10.895
阴兽	-10.8952
这段时间	-10.8953
惊动	-10.8955
永	-10.8955
歪	-10.8955
如此大的	-10.8955
闭上了双目	-10.8956
清醒	-10.8957
工	-10.8957
俗	-10.8958
规矩	-10.8958
伞	-10.8958
初踏修	-10.8958
一哄而散	-10.8958
涂	-10.8958
纹丝不动	-10.8958
相提并论	-10.8958
江湖	-10.8958
赫赫有名的	-10.8958
长出了一口气	-10.8958
丑汉	-10.8958
感慨	-10.8959
娇媚	-10.8959
追逐	-10.8959
危机	-10.8959
哪是	-10.896
体质	-10.8961
效力	-10.8961
灰影	-10.8962
干尸	-10.8963
霸道	-10.8963
近前处	-10.8964
元磁山	-10.8964
顺手	-10.8964
鬼魅般的	-10.8965
看守	-10.8966
老身	-10.8971
一辆	-10.8971
木然的	-10.8972
的灵兽	-10.8973
降落	-10.8973
仍在	-10.8973
高深	-10.8975
青影	-10.8975
丈许高	-10.8976
入门	-10.8979
头顶上空	-10.8979
灵气波动	-10.898
古怪之色	-10.8983
每年	-10.8985
火焰中	-10.8986
▁可就在这	-10.8986
一声冷笑	-10.8988
惊怒之极	-10.8992
既然道友	-10.8995
自持	-10.8996
让道友	-10.8998
只是一个	-10.8998
笼罩的	-10.8999
将对方	-10.9003
背生	-10.9004
和你们	-10.9005
并用	-10.9006
小巧	-10.9009
在高空	-10.9014
散发着淡淡	-10.9014
有多少	-10.9016
修炼成	-10.9021
大乘修士	-10.9021
一掐	-10.9022
闪现	-10.9023
只想	-10.9024
漆黑如墨	-10.9027
法诀一催	-10.9029
以他现在	-10.903
姐妹	-10.903
寒冰	-10.9032
拳头大的	-10.9033
拿去	-10.9033
一个人影	-10.9035
一波	-10.9039
只要有	-10.9042
说说	-10.9043
不知何时的	-10.9049
以往	-10.9049
托起	-10.9049
一个闪动的	-10.9053
几声后	-10.9053
眼神	-10.9056
脚步声	-10.9058
休	-10.9058
什么意思	-10.9059
手臂一抬	-10.906
比以前	-10.906
是何物	-10.9065
居住的	-10.9065
微微一晃	-10.9066
前面的	-10.9068
一提	-10.9072
挥	-10.9076
抵	-10.9077
这样的话	-10.908
十足	-10.908
转眼	-10.908
肢	-10.9081
金色小人	-10.9082
倒没有	-10.9083
指挥	-10.9086
值	-10.9087
低鸣	-10.9089
狮	-10.9091
浮现出一层	-10.9092
泡	-10.9094
翎羽	-10.9094
破禁	-10.9096
这些材料	-10.9096
搜魂	-10.9097
忌讳	-10.9097
束缚	-10.9097
紫袍大汉	-10.9097
羞	-10.9097
汹汹燃烧	-10.9097
蒙面女子	-10.9097
白眉青年	-10.9097
开始时	-10.9097
金焰候	-10.9097
旧识	-10.9098
屏风	-10.9098
稍加	-10.9101
从中一飞而出	-10.9103
惊讶的	-10.9103
凝望了	-10.9103
酒楼	-10.9104
雷电之力	-10.9104
之类的东西	-10.9105
很正常	-10.9105
药力	-10.9107
倒可以	-10.9108
半边	-10.9108
才刚	-10.9111
在其上	-10.9113
韩立盯着	-10.9115
极快	-10.9116
一会儿工夫后	-10.9117
也绝	-10.9118
▁韩立心中一凛	-10.9119
攻打	-10.9121
无暇	-10.9123
你怎么	-10.9124
对敌	-10.9125
施展出来	-10.9126
开口说话	-10.9127
入定	-10.9127
待在	-10.9131
再见	-10.9131
想过	-10.9134
略有	-10.9134
尺许长的	-10.9138
出奇	-10.9139
天澜圣兽	-10.9144
从高空	-10.9145
多亏	-10.9145
是一位	-10.9147
几颗	-10.9148
高明	-10.9148
血雨	-10.9148
的高阶修士	-10.9148
捞	-10.915
的好处	-10.915
沉吟了一下后	-10.9155
卷入	-10.9156
一笔	-10.9156
韩某也	-10.9158
要不	-10.916
▁而他	-10.9161
做出了	-10.9161
等待	-10.9162
狂涌	-10.9168
蛇人	-10.9169
走过	-10.9169
四方	-10.917
冲对面	-10.9173
花了	-10.9175
略带	-10.9175
怪笑	-10.9176
似笑非笑	-10.9179
耐	-10.918
数万年	-10.9184
就由	-10.9195
深吸一口气	-10.9195
神识中	-10.9196
光芒闪动	-10.9197
发起	-10.9198
为师	-10.9199
自然还是	-10.9199
分裂	-10.92
三皇	-10.9201
高涨	-10.9202
注视	-10.9202
迟疑了一下	-10.9205
却蓦然	-10.9205
韩长老	-10.921
狐	-10.9211
传来一声	-10.9212
但表面	-10.9213
▁韩立见	-10.9214
程	-10.9215
麒麟	-10.9222
放到了	-10.9223
再次化为	-10.9223
一圈圈	-10.9225
灰袍	-10.9227
瞅向	-10.923
一清二楚	-10.9231
看完	-10.9235
默	-10.9235
模	-10.9237
屈	-10.9238
骗	-10.9238
志	-10.9238
补天丹	-10.9238
忐忑不安	-10.9238
一头雾水	-10.9238
紫罗极火	-10.9238
乖巧	-10.9238
鲁姓老者	-10.9238
筱虹	-10.9238
对这位	-10.9238
推辞	-10.9238
焦急	-10.9238
一大堆	-10.9239
透漏	-10.9239
说出来	-10.9239
使劲	-10.9239
致命	-10.9239
一罩而下	-10.9239
温度	-10.9239
书页	-10.9239
巧合	-10.924
奇快无比	-10.924
神态	-10.924
玉如意	-10.924
做主	-10.9241
争取	-10.9242
催促	-10.9242
两座山峰	-10.9242
不知多少	-10.9243
破解	-10.9243
厅中	-10.9243
召开	-10.9243
晶珠	-10.9243
石墙	-10.9243
小弟	-10.9244
冰块	-10.9245
狂奔	-10.9246
妖狐	-10.9246
飞入	-10.9246
凶魔	-10.9248
炼气	-10.9248
两片	-10.9249
堪称	-10.925
路过	-10.9251
翠绿色	-10.9251
当着	-10.9252
圣城	-10.9252
悄然的	-10.9253
后期修士	-10.9253
二物	-10.9257
血蛟	-10.9258
一个时辰后	-10.9259
核心	-10.9259
▁然后他	-10.9259
元婴初期修士	-10.9259
▁韩立等人	-10.926
指望	-10.9261
灵兽山	-10.9262
绿光一闪	-10.9263
蓝袍人	-10.9266
神念一扫	-10.9267
闪着	-10.927
早些	-10.9271
要做	-10.9272
的咒语声	-10.9272
炼虚修士	-10.9276
三十	-10.9279
落地	-10.9281
撤离	-10.9282
不再犹豫	-10.9289
的工夫	-10.929
冲远处	-10.9291
面子	-10.9293
脸露	-10.9294
不算太	-10.9295
就知道	-10.9296
那张	-10.93
历	-10.93
大族	-10.9301
让这位	-10.9302
一干人等	-10.9302
认真	-10.9306
▁这一幕	-10.931
毫不起眼	-10.931
还可	-10.9312
虽然对	-10.9315
根本就	-10.9317
再用	-10.9319
平静异常	-10.932
▁所有	-10.9321
韩家	-10.9325
就足以	-10.9329
诡异的浮现而出	-10.9331
飞过	-10.9335
▁见到此幕	-10.9335
从对方	-10.9339
用秘术	-10.9339
恍然	-10.9344
并没有马上	-10.9346
炼制出来	-10.9346
的手臂	-10.935
宫主	-10.935
钻入	-10.9352
看中	-10.9353
也不再	-10.9353
守在	-10.9354
惨	-10.9362
是否有	-10.9362
霞光一闪	-10.9367
也无需	-10.9369
▁没有多久	-10.9369
竟一时	-10.9374
细小	-10.9375
这里有	-10.9376
让那	-10.9377
欢	-10.9377
神色如常的	-10.9378
睁开双目	-10.9378
心中也	-10.9379
竞	-10.938
职	-10.938
芥子空间	-10.9381
太上长老	-10.9381
镇魔锁	-10.9381
太一化清符	-10.9381
毒圣门	-10.9381
涅盘	-10.9381
千竹教	-10.9381
陆续	-10.9381
箭矢	-10.9381
摆摆手	-10.9381
纳闷	-10.9381
篇	-10.9381
万宝大会	-10.9381
罩在了其下	-10.9381
元魇圣祖	-10.9382
中年道士	-10.9382
修补	-10.9382
婴儿	-10.9382
赵家	-10.9382
残片	-10.9382
黑鳄	-10.9383
五色孔雀	-10.9383
小猴	-10.9384
狂涌而去	-10.9385
数十里	-10.9385
狂暴	-10.9386
巨坑	-10.9386
吸取	-10.9386
青莲	-10.9387
先是一惊	-10.9387
或许	-10.9387
异兽	-10.9388
四翅	-10.9389
风老怪	-10.939
尽头处	-10.9391
黑焰	-10.9391
看来他	-10.9392
保持着	-10.9396
提防	-10.9396
从口中喷出	-10.9397
这两位	-10.9397
刀光	-10.9398
名叫	-10.9401
神色各异	-10.9403
▁正是韩立	-10.9403
刺目的	-10.9408
不顾	-10.9414
几头	-10.9423
手臂上	-10.9424
你想	-10.9425
分头	-10.9429
峰顶	-10.9429
笑嘻嘻的	-10.9429
轻笑起来	-10.943
不敌	-10.9432
哪位	-10.9433
气势汹汹	-10.9434
前后	-10.9435
散开	-10.9436
停顿	-10.9441
相见	-10.9443
的尸体	-10.9446
两根	-10.9447
▁就这般	-10.9448
过来了	-10.9449
这样做	-10.9449
一眼就看出	-10.9458
胡	-10.9459
不会有什么	-10.9463
而言	-10.9464
拿出了	-10.9468
那群	-10.9468
基	-10.9469
五色光幕	-10.947
怪异的	-10.9472
辛苦	-10.9472
绝对会	-10.9473
看其	-10.9476
每一次	-10.9476
让它	-10.9479
当成	-10.9479
之色的说道	-10.9482
▁但下一刻	-10.9484
就可以了	-10.9487
失声起来	-10.9491
向前方	-10.9492
飞走	-10.9493
六名	-10.9494
青衫	-10.9494
的天地元气	-10.9494
光罩中	-10.9495
哥	-10.9495
胖老者	-10.9499
▁而就在	-10.9502
的意思是	-10.9503
▁至于那	-10.9503
近半	-10.9507
迟了	-10.9508
那些人	-10.951
一些事情	-10.9515
嘴中	-10.952
赵	-10.9521
辟	-10.9523
一顿的	-10.9524
说到这里	-10.9525
规模	-10.9526
饮	-10.9526
菡云芝	-10.9526
庄	-10.9526
戛然而止	-10.9526
血袍少年	-10.9526
银蝌文	-10.9526
不假思索的	-10.9526
元磁神山	-10.9526
一小部分	-10.9526
搜查	-10.9526
兵器	-10.9526
翠芒	-10.9526
少爷	-10.9527
反悔	-10.9527
铜镜	-10.9527
神色一正	-10.9527
交叉	-10.9527
修仙家族	-10.9528
王门主	-10.9528
底细	-10.9529
细想	-10.9529
双首	-10.953
阴阳	-10.953
迎面	-10.9531
半透明	-10.9531
局面	-10.9531
手捧	-10.9532
阵图	-10.9532
寒意	-10.9535
吃力	-10.9535
对着	-10.9535
显示	-10.9543
金丹	-10.9543
就这么	-10.9543
吞噬了	-10.9544
瞬间化为	-10.9544
苦头	-10.9545
吃了	-10.9546
说不得	-10.9548
的关系	-10.9548
其他道友	-10.9549
包裹其中	-10.9552
轻轻一晃	-10.9553
金黄色	-10.9556
合上	-10.9556
三目	-10.9558
又能	-10.9561
一片青霞	-10.9562
懂得	-10.9562
数条	-10.9566
竟同时	-10.9566
异样的	-10.9566
虽然知道	-10.9569
有七八	-10.9573
还是有些	-10.9575
大天劫	-10.9577
黑鳞	-10.9578
没问题	-10.9578
▁韩立脸上	-10.958
中激射而出	-10.9582
一方面	-10.9584
储物镯中	-10.9585
一阵阵	-10.9588
温和	-10.9594
有点意外	-10.9597
▁但当	-10.9598
有丝毫	-10.9598
供	-10.9601
此妖兽	-10.9601
就如同	-10.9602
笔直	-10.9603
你觉得	-10.9603
的秘密	-10.9603
再往	-10.9605
隐隐传来	-10.9608
的几名	-10.961
遗憾	-10.9614
三头	-10.9616
的辟邪神雷	-10.9618
一听此	-10.9619
分心	-10.962
女弟子	-10.9624
克	-10.9625
之手	-10.9626
并最终	-10.9627
男的	-10.9631
这世间	-10.9631
弟	-10.9632
收回了	-10.964
一团刺目	-10.9648
高空处	-10.9648
睁开了	-10.9649
层层	-10.9652
念念有词	-10.9656
利刃	-10.9658
青甲	-10.9661
周	-10.9663
伸出一根手指	-10.9665
不慢	-10.9665
贪	-10.9668
见对方	-10.9668
节	-10.9669
挣脱	-10.9671
烂	-10.9672
庇护	-10.9673
执法	-10.9673
非同一般	-10.9673
奎焕	-10.9673
魁星岛	-10.9673
黄金巨蟹	-10.9673
献	-10.9673
钉	-10.9673
稀薄	-10.9673
流逝	-10.9673
急促	-10.9673
牵引	-10.9674
仔细打量了	-10.9674
一涌而出	-10.9675
冰锥	-10.9675
加持	-10.9675
带翅	-10.9675
盘旋不定	-10.9676
巨斧	-10.9677
破碎	-10.9677
肉体	-10.9678
青焰	-10.9681
木属性	-10.9681
已经有	-10.9681
绝佳	-10.9682
立足	-10.9682
震得	-10.9683
一个跌跄	-10.9684
交织一起	-10.9685
飞灵人	-10.9686
铁青	-10.9686
少数	-10.9687
炉	-10.9691
看在	-10.9691
就用	-10.9692
答应了下来	-10.9695
站在了	-10.9696
三大修士	-10.9696
带着韩立	-10.9698
浓雾	-10.9698
想了一想后	-10.97
轻笑的说道	-10.9706
给其	-10.9707
有些惊讶	-10.9711
山头上	-10.9714
以其	-10.9714
以你	-10.9715
三日后	-10.9719
听起来	-10.972
的到来	-10.9721
我自会	-10.9723
挡在了身前	-10.9723
结成	-10.9724
又怎能	-10.9727
因为他	-10.973
银光闪动	-10.9732
我们灵界	-10.9735
往前	-10.9736
推开	-10.9737
血腥	-10.9743
的恐怖	-10.9743
莹光	-10.9743
几块	-10.9745
同时一股	-10.9746
八只	-10.9751
亲自出手	-10.9751
世上	-10.9752
走动	-10.9755
碎片	-10.9757
霞光一卷	-10.976
显然是	-10.9761
在高空中	-10.9763
在四周	-10.9767
杯	-10.9767
的寒气	-10.9771
魔人	-10.9772
和这位	-10.9773
一盏茶工夫后	-10.978
在下一刻	-10.978
再起	-10.9787
竟是一只	-10.9788
微微颤抖	-10.9789
一剑	-10.9794
但当	-10.9798
并发出	-10.9798
催生	-10.9799
金色光柱	-10.98
白霞	-10.9801
绽放	-10.9801
我们这些	-10.9804
的怪异	-10.9805
右	-10.9805
黄风	-10.9805
逗留	-10.9806
神色凝重	-10.9807
石台上	-10.9808
其余之人	-10.9808
坠魔谷中	-10.9809
扭	-10.9809
际	-10.981
潭	-10.9812
化为一张	-10.9814
在密室中	-10.9814
鳞	-10.9817
创	-10.9819
标	-10.9819
燕	-10.982
激射出去	-10.982
想道	-10.9821
务	-10.9822
云梦山	-10.9822
南疆	-10.9822
完好无损	-10.9822
金面人	-10.9822
鸠面老者	-10.9822
白芸馨	-10.9822
嗅	-10.9822
幻夜城	-10.9822
粉末	-10.9822
婉儿	-10.9822
笼	-10.9823
红唇	-10.9823
虫室	-10.9824
缓慢	-10.9824
慌乱	-10.9824
骨架	-10.9824
红晕	-10.9825
儒衫老者	-10.9825
一口答应下来	-10.9827
翻脸	-10.9827
脑子	-10.9827
剑丝	-10.9828
一举一动	-10.9828
一具化身	-10.9829
上人	-10.9829
嗡鸣声大起	-10.983
从未见过	-10.9831
目光闪动几下	-10.9832
众飞剑	-10.9834
金球	-10.9835
阴云	-10.9836
两步	-10.9836
刀剑	-10.9836
一股无形巨力	-10.9838
一喷	-10.9839
死物	-10.9839
一压而下	-10.9842
但只要	-10.9847
年份	-10.9849
了多少	-10.9851
反击	-10.9856
布置下	-10.9859
这两只	-10.9862
大麻烦	-10.9864
真想	-10.9867
只留下	-10.9869
寸寸碎裂	-10.987
闯进	-10.9872
二位前辈	-10.9872
在了其中	-10.9875
多想	-10.9875
笑了一笑	-10.9882
若没有	-10.9888
一颗颗	-10.989
丫头	-10.9894
成功了	-10.9894
姓男子	-10.9895
躲闪	-10.9895
潮水般的	-10.99
晶莹剔透	-10.9901
救下	-10.9902
走在	-10.9904
分手	-10.9905
心血	-10.9906
身旁的	-10.9909
和我等	-10.9911
但就这样	-10.9911
即使在	-10.9911
一笑后	-10.9914
从外面	-10.9914
化为一条	-10.9925
几层	-10.9927
原本应该	-10.9931
泥土	-10.9931
挡了下来	-10.9934
不光是	-10.9935
药性	-10.9937
洞中	-10.9942
恢复如初了	-10.9942
指尖处	-10.9947
黑甲	-10.9947
不认识	-10.9948
裹	-10.9948
化神级	-10.9949
蝠	-10.995
▁南陇侯	-10.995
面色阴沉	-10.9952
实际	-10.9953
受伤	-10.9954
十余丈高	-10.9957
但目光	-10.9962
追来	-10.9965
明清灵目	-10.9968
真心	-10.9969
完成了	-10.9969
穷	-10.997
眨眼间就	-10.9971
怔怔	-10.9973
偶	-10.9973
阗天城	-10.9973
若能	-10.9973
啦	-10.9974
广寒令	-10.9974
迅雷不及掩耳	-10.9974
的喃喃道	-10.9974
段天刃	-10.9974
彩流罂	-10.9974
洗灵池	-10.9974
萧布衣	-10.9974
回过神来	-10.9974
儒雅	-10.9974
除此之外	-10.9974
世俗	-10.9974
翁姓青年	-10.9974
大喜过望	-10.9974
啧啧称奇	-10.9974
称赞	-10.9974
佩服	-10.9974
脱手射出	-10.9975
熟练	-10.9975
收了回来	-10.9976
踩	-10.9976
呼老魔	-10.9977
留有	-10.9977
浑身上下	-10.9977
不加思索的回道	-10.9978
十几根	-10.9979
▁陇家老祖	-10.9979
取胜	-10.9979
精光	-10.9979
尺许大小	-10.998
两截	-10.9981
凶兽	-10.9981
回归	-10.9981
灵目神通	-10.9982
目中精光一闪	-10.9983
长枪	-10.9984
这倒不是	-10.9985
借口	-10.9986
五根	-10.9988
第四层	-10.9991
两个月	-10.9991
绝不可能	-10.9993
携带	-10.9994
破了	-10.9996
墙壁上	-10.9997
一百	-11
番	-11.0001
大坑	-11.0003
无物	-11.0004
炼成	-11.0004
不瞒	-11.0004
▁韩立站在	-11.0004
符阵	-11.0007
荒	-11.0007
十名	-11.001
低空中	-11.0012
一见这	-11.0014
黑凤	-11.0014
既然已经	-11.0017
肉眼	-11.0018
一想到	-11.002
▁这也是	-11.0024
有什么事情	-11.0027
好一会儿	-11.0027
心目中	-11.0027
一个晃动	-11.0028
虽说	-11.0031
脸上闪过一丝	-11.0035
窗	-11.0042
冰壁	-11.0044
见识过	-11.0045
▁难道	-11.0047
渡	-11.005
取出了	-11.005
天下	-11.0051
遁光中	-11.0053
赶到了	-11.0055
上族	-11.0063
不明	-11.0064
但不知	-11.0065
五六丈	-11.0068
十余丈外	-11.0069
▁这一日	-11.007
几乎将	-11.0071
含笑的	-11.0072
无视	-11.0072
出现在此地	-11.0074
射来	-11.0075
大道	-11.0075
那小子	-11.0082
抬腿	-11.0082
对上	-11.0083
出世	-11.0087
黑色巨舟	-11.0091
表现的	-11.0094
绝没有	-11.01
此幡	-11.0103
淡笑	-11.0103
般大小	-11.0106
蓦然出现	-11.0106
没有发现	-11.0113
前不久	-11.0113
簇拥	-11.0115
内殿	-11.0116
驱除	-11.012
棍	-11.0121
老鬼	-11.0121
丸	-11.0122
七七八八	-11.0123
翎	-11.0123
鉴	-11.0124
隆	-11.0124
话说回来	-11.0125
手中法诀	-11.0125
告诉我	-11.0126
跨	-11.0126
犀	-11.0126
责	-11.0127
宋	-11.0127
虬须大汉	-11.0127
铃	-11.0127
破灭法目	-11.0127
窃窃私语	-11.0127
之长	-11.0128
塌陷	-11.0128
玄奥	-11.0128
嘉元城	-11.0128
娇躯	-11.0128
叶楚	-11.0128
亏损	-11.0128
年龄	-11.0128
回禀	-11.0128
寄附	-11.0128
走廊	-11.0128
冯家	-11.0128
上下打量	-11.013
了回来	-11.0131
还真有些	-11.0131
的回答	-11.0132
十几条	-11.0134
炉鼎	-11.0134
小山般	-11.0136
无论是	-11.0139
短剑	-11.0141
平分	-11.0141
反弹	-11.0141
哪个	-11.0148
自然可以	-11.0153
施展秘术	-11.0153
轰隆隆之声	-11.0155
口喷	-11.0156
目光闪动的	-11.0158
今后	-11.0158
宗主	-11.0163
没能	-11.0163
这场	-11.0163
相同	-11.0164
一拉	-11.0164
巨木	-11.0165
但明显	-11.0165
洞府内	-11.0166
嫁	-11.0167
还真有	-11.0167
化为一道惊虹	-11.0169
脸上神色	-11.0171
冲韩立说道	-11.0172
此傀儡	-11.0172
被困在	-11.0172
追问	-11.0173
金刚	-11.0175
泄露	-11.0179
同一时间	-11.0184
迎向了	-11.0185
转瞬间	-11.0186
的散修	-11.0186
只要不	-11.0189
房屋	-11.0195
首先	-11.0198
大鹏	-11.0199
仿佛是	-11.0201
的元婴修士	-11.0205
交好	-11.0211
木族人	-11.0215
数以百计的	-11.022
挡在	-11.0226
四面八方	-11.0226
万道	-11.0227
略一思量	-11.0228
不会轻易	-11.0231
一用力	-11.0231
偏殿	-11.0231
仔细打量	-11.0233
如此轻易的	-11.0238
古传送阵	-11.0238
手一抬	-11.0239
跟随	-11.024
脉	-11.0246
丑	-11.0249
保住	-11.0252
不死	-11.0256
你要	-11.0257
冰冷的	-11.0263
这么一个	-11.0268
深知	-11.0269
比普通	-11.027
多久的	-11.0272
下去吧	-11.0272
舌	-11.0272
门上	-11.0272
还另有	-11.0274
斩下	-11.0276
吟	-11.0278
之声大起	-11.0279
一支	-11.0279
鹤	-11.028
贼	-11.028
一处地方	-11.0281
骤	-11.0281
蝶	-11.0281
肤	-11.0281
如此说	-11.0282
侄	-11.0283
裙	-11.0283
慕	-11.0283
驾	-11.0283
天符门	-11.0284
银罡子	-11.0284
庞然	-11.0284
螳螂	-11.0284
一掠而过	-11.0284
噬灵天火	-11.0284
腐	-11.0284
御风车	-11.0284
狗	-11.0284
墨凤舞	-11.0284
培炼	-11.0284
操控	-11.0284
虚灵殿	-11.0284
拜访	-11.0284
杜东	-11.0284
明知	-11.0284
轻吐一口气	-11.0284
惧意	-11.0285
药丸	-11.0285
紫血傀儡	-11.0285
鬼灵门少主	-11.0285
规定	-11.0285
和其他人	-11.0285
赤焰	-11.0286
马姓老者	-11.0286
蛮兄	-11.0286
鸡蛋大小	-11.0286
符纸	-11.0286
独立	-11.0287
抓紧	-11.0288
枯瘦男子	-11.0289
不要忘了	-11.0289
莫兄	-11.0289
幻化而出	-11.0291
几条	-11.0294
石块	-11.0295
般大小的	-11.0296
放在了	-11.03
再一次	-11.0301
此类	-11.0302
放大	-11.0305
成年	-11.0308
女子声音	-11.031
扫去	-11.031
血光圣祖	-11.0314
贴着	-11.0315
之情	-11.0315
一排	-11.0318
白云	-11.032
法门	-11.0321
所需的	-11.0322
就算真	-11.0322
用此	-11.0323
▁元瑶	-11.0324
硬着头皮	-11.0325
两女	-11.0326
有道理	-11.0328
神色微微一动	-11.0328
闪动后	-11.033
后辈	-11.0333
要想	-11.0333
心中自然	-11.0335
想象的	-11.0336
恭敬的说道	-11.0337
一阵扭曲	-11.0338
消失在	-11.0338
金兄	-11.0339
再想	-11.0342
本身也	-11.0344
惊疑之色	-11.0347
从中激射而出	-11.0348
慕兰	-11.0349
▁韩立点点头	-11.0351
七八名	-11.0357
▁数个时辰后	-11.0358
几名修士	-11.0365
不及多想的	-11.0366
毕竟是	-11.0368
这所谓的	-11.0375
察觉到	-11.0376
虽然修为	-11.0378
头颅上	-11.0379
拉开	-11.038
魔尸	-11.0381
开辟	-11.0382
三件	-11.0383
另一座	-11.0385
洁白如玉的	-11.0387
给我们	-11.039
不知前辈	-11.0391
远处天边	-11.0392
神色大变	-11.04
不一的	-11.0403
一红	-11.0405
▁对面	-11.0409
韩立双目一眯	-11.041
多次	-11.0412
一凝后	-11.0413
▁过了	-11.0414
浓浓的	-11.0416
在何处	-11.0416
了数遍	-11.0417
浮现出了	-11.0417
丈许大	-11.0417
大树	-11.0418
一黯	-11.0419
是否真	-11.042
元婴初期	-11.0423
某座	-11.0423
尾随	-11.0425
应是	-11.0426
高阶灵石	-11.0427
光影	-11.0427
残余的	-11.0428
朝下	-11.0429
想问	-11.0431
并未有	-11.0432
粒	-11.0435
妄	-11.0435
若是没有	-11.0436
猜到了	-11.0437
练成	-11.0441
尤	-11.0442
微动	-11.0442
习惯	-11.0442
咬牙切齿	-11.0442
魁	-11.0442
云天啸	-11.0442
屁	-11.0442
元磁极山	-11.0442
束手而立	-11.0442
呜呜	-11.0442
坡	-11.0443
顾虑	-11.0443
戒备	-11.0443
狐疑	-11.0443
嘴角抽搐一下	-11.0443
老爷	-11.0444
颇感兴趣	-11.0444
教主	-11.0444
争抢	-11.0444
肉身强横	-11.0445
参与	-11.0446
凶虫	-11.0446
波及	-11.0446
灵域	-11.0447
眼光	-11.0452
脖颈处	-11.0453
片刻之后	-11.0454
但可惜	-11.0454
压力	-11.0455
至阳	-11.0457
车子	-11.0457
一圈圈的	-11.0459
化神期修士	-11.046
冷声	-11.0462
刚想	-11.0463
不能说	-11.0463
目中蓝芒一闪	-11.0468
滚滚而来	-11.0468
十万	-11.0469
从袖口中	-11.0469
为之一变	-11.047
▁而这些	-11.047
半个月后	-11.0472
舍	-11.0476
面带一丝	-11.0477
就算如此	-11.0478
扑去	-11.0481
踏	-11.0484
大方	-11.0484
即使韩立	-11.0486
坠落	-11.0487
涨大	-11.0487
应该很清楚	-11.0489
神色肃然	-11.0491
脆响	-11.0491
水晶	-11.0491
两位前辈	-11.0491
交给我	-11.0492
的用意	-11.0492
运用	-11.0492
而散	-11.0493
倒竖	-11.0494
望了过去	-11.0495
可以直接	-11.0495
仍能	-11.0497
圣殿	-11.0499
了上去	-11.0501
天边尽头处	-11.0504
摇摇头的说道	-11.0504
岩	-11.0508
盯上	-11.0508
飘然	-11.0508
一道淡淡	-11.0511
抚	-11.0513
我们叶家	-11.0513
狰狞异常	-11.0516
采用	-11.0516
摸出	-11.0517
一托	-11.0517
忽然从	-11.0522
一闪之后	-11.0524
一弹而开	-11.0525
若有所思	-11.0529
玉符	-11.053
声音不大	-11.0533
有些惊疑	-11.0534
闻言一怔	-11.0535
不剩	-11.0536
有一位	-11.0538
▁木青	-11.0538
浮出	-11.0539
泛	-11.0544
▁听到韩立	-11.0551
以免	-11.0552
消失的无影无踪了	-11.0553
竟会	-11.0553
战斗	-11.0554
▁只见他	-11.0555
▁韩立一边	-11.056
剑阵中	-11.0564
狂闪几下	-11.0564
充满	-11.0566
凶光	-11.0567
谷口	-11.0572
飞起	-11.0573
深深的	-11.0573
元刹圣祖	-11.0574
无意	-11.0577
慢悠悠的	-11.0579
元婴级	-11.0585
策	-11.0587
敖啸	-11.0591
心中骇然	-11.0592
使用了	-11.0595
才最终	-11.0598
追去	-11.0599
七十二	-11.0599
硕大的	-11.0599
讥讽之色	-11.06
倒也不是	-11.06
亭	-11.0601
一声雷鸣	-11.0602
细丝	-11.0603
辞	-11.0603
累	-11.0603
徘	-11.0604
苏醒	-11.0604
盏	-11.0604
凶司王	-11.0604
嘱	-11.0604
灵烛果	-11.0604
不紧不慢的	-11.0604
又惊又喜	-11.0604
紧随其后	-11.0604
顾东主	-11.0604
湖泊	-11.0604
蹦	-11.0604
从天而降	-11.0604
捡	-11.0604
贸然	-11.0604
先走一步	-11.0604
稀罕	-11.0604
歇息	-11.0604
陈师妹	-11.0604
呆呆	-11.0604
彩凤	-11.0605
音波	-11.0606
清醒过来	-11.0606
元姑娘	-11.0606
曲儿	-11.0607
冷笑了一声	-11.0608
认主	-11.0608
有多大	-11.0609
火蟾	-11.0609
恐怕还真	-11.061
妄想	-11.0611
微张	-11.0612
火浪	-11.0612
为之一松	-11.0613
草木	-11.0613
哪里去	-11.0613
▁妇人	-11.0616
冲突	-11.0617
可不会	-11.0618
轻描淡写的说道	-11.0618
分魂	-11.0618
望见	-11.062
破空而去	-11.062
两层	-11.0622
可别	-11.0623
吞噬掉	-11.0625
进入魔界	-11.0625
化解	-11.0626
知道一些	-11.0627
决心	-11.0627
去吧	-11.0627
进阶到了	-11.063
巨物	-11.0631
重新恢复	-11.0633
的最佳	-11.0633
迎着	-11.0634
无法看出	-11.0635
大吃了一惊	-11.0636
舍得	-11.0638
自如	-11.064
斩杀了	-11.064
有劳	-11.0641
数十丈外	-11.0641
几族	-11.0643
透过	-11.0643
闻听	-11.0646
心机	-11.0649
这张	-11.0651
微笑的说道	-11.0652
玉指	-11.0663
惊怒的	-11.0663
又有些	-11.0665
士	-11.0666
五指一分	-11.0667
不起眼	-11.0669
第四	-11.0671
绝无法	-11.0673
▁不久后	-11.0676
大不了	-11.0682
猜想	-11.0682
三派	-11.0687
天鹏	-11.0688
超	-11.0689
龙吟	-11.0696
法则	-11.0696
韩立淡淡的	-11.0697
绝无	-11.0698
大惊的	-11.0701
碗口粗的	-11.0706
之火	-11.0706
可让	-11.0707
有些郁闷	-11.071
山壁	-11.0711
去追	-11.0712
诧异之色	-11.0712
▁站在	-11.0713
隐现	-11.0715
摇头	-11.0716
了半天	-11.0719
最终还是	-11.0721
景	-11.0724
也没想到	-11.0725
雾中	-11.0726
尺许长	-11.0727
青濛濛的	-11.0735
了一分	-11.0737
的能力	-11.0739
片片	-11.074
两家	-11.0741
在一阵	-11.0744
得很	-11.0745
极寒	-11.075
写	-11.0754
而进	-11.0755
骑	-11.0755
既然能	-11.0759
坊市中	-11.076
的内容	-11.076
一抹	-11.076
眸	-11.0761
有些出乎	-11.0762
自然更	-11.0763
不受	-11.0764
官	-11.0765
所在方向	-11.0765
跪	-11.0766
映	-11.0767
还不知	-11.0767
啪	-11.0767
混沌二气	-11.0767
他老人家	-11.0768
葛	-11.0768
兜	-11.0768
天元圣皇	-11.0768
炫烨王	-11.0768
极寒之焰	-11.0768
天鼎真人	-11.0768
棒	-11.0768
黑脸老者	-11.0768
安慰	-11.0768
豆粒	-11.0768
姿势	-11.0768
腾腾	-11.0768
痛楚	-11.0768
暂且	-11.0768
荒凉	-11.0768
顿时一片	-11.0768
黑衣美妇	-11.0768
闲聊	-11.0768
给你们	-11.0768
正魔两道	-11.0769
陨落而亡	-11.0769
胡乱	-11.0769
开玩笑	-11.0769
激射而回	-11.0769
三十余丈	-11.0769
双目一闭	-11.0769
中年儒生	-11.077
仅凭	-11.077
灵乳	-11.077
金光上人	-11.0771
冷淡	-11.0771
巨禽	-11.0771
讲解	-11.0771
飞遁而走	-11.0772
部位	-11.0772
救命	-11.0772
比一般	-11.0773
白痕	-11.0773
村子	-11.0773
血咒	-11.0774
大有深意的说道	-11.0774
这群	-11.0775
通灵傀儡	-11.0776
长戈	-11.0777
金焰	-11.0779
淡淡的说了一句	-11.0782
身上一扫后	-11.0783
也不客气	-11.0783
谷内	-11.0783
魂石	-11.0784
自语道	-11.0785
真面目	-11.0789
不加思索的说道	-11.079
但同样	-11.079
血天	-11.0793
早就被	-11.0796
惊讶之色	-11.0797
玉盒中	-11.0799
此幕	-11.0803
仰	-11.0804
袋	-11.0805
青白	-11.0806
灵将	-11.081
懒洋洋的	-11.0812
已经有了	-11.0814
话题	-11.0819
明天	-11.0819
所留	-11.082
同时口中	-11.0821
冒着	-11.0823
妥当	-11.0825
石灵	-11.0825
听到这话	-11.0832
洞窟中	-11.0834
先一步的	-11.0834
度过	-11.0835
两天	-11.0835
阵中	-11.0836
一飘	-11.0837
面无表情的说道	-11.0841
一跃	-11.0844
大喜起来	-11.0852
回去后	-11.0854
一搓	-11.0855
黄光一闪	-11.0856
灵山	-11.0856
自然无法	-11.0862
引起了	-11.0862
惊天	-11.0863
见其	-11.0863
乖乖的	-11.0866
所处	-11.0868
火蛟	-11.0869
浓浓	-11.087
愣	-11.0872
血傀儡	-11.0875
鸦	-11.0875
不放心	-11.0881
就不会	-11.0882
身上一扫	-11.0883
有些难看	-11.0883
后方	-11.0889
向上	-11.0889
双目微眯的	-11.089
应该可以	-11.0894
不容	-11.0894
听听	-11.0896
一声凄厉	-11.0896
非要	-11.0897
加快	-11.0898
不准	-11.0901
绝对不是	-11.0902
做好	-11.0906
赠	-11.0912
的动作	-11.0912
都不是	-11.0912
淡然的	-11.0913
极山	-11.0913
黄霞	-11.0915
飞离了	-11.0916
人群中	-11.0917
精致	-11.0919
▁在这	-11.0919
测	-11.0922
了近半	-11.0925
▁但就在	-11.0927
颈	-11.0931
启	-11.0931
谋	-11.0933
源源不断	-11.0934
喃喃的自语	-11.0934
仪式	-11.0934
窟耀	-11.0934
嘎嘣	-11.0934
晴	-11.0934
取而代之的	-11.0934
繁	-11.0934
骨骼	-11.0934
震耳欲聋	-11.0934
激增	-11.0934
杜宇	-11.0934
撒	-11.0934
乐姓女子	-11.0934
皆	-11.0935
烈焰	-11.0935
注	-11.0935
山峰上	-11.0935
尊者	-11.0936
怨毒	-11.0936
极限	-11.0936
程师兄	-11.0936
停下了遁光	-11.0937
恭声	-11.0938
杀掉	-11.0938
红芒	-11.0938
施展出	-11.0939
十有八九是	-11.0939
蓝焰	-11.0939
丹丸	-11.0939
就轻易	-11.0939
赌战	-11.094
制成	-11.0941
轻巧	-11.0941
夺目	-11.0941
水幕	-11.0941
嘴里	-11.0942
圣皇	-11.0942
单手一抓	-11.0943
粉红色	-11.0943
异像	-11.0943
灵酒	-11.0945
只是几个闪动	-11.0946
城主	-11.0947
站立着	-11.0947
价钱	-11.0948
灰袍老者	-11.0949
一员	-11.095
到手的	-11.0951
在场的	-11.0952
思量一下	-11.0952
六派	-11.0952
躺	-11.0953
心底	-11.0957
了上来	-11.096
正要	-11.0961
穿着	-11.0961
矮胖	-11.0961
火山	-11.0965
玄冰	-11.0967
当他	-11.0968
一座座	-11.0968
丈许大小	-11.097
关闭	-11.0974
摆放	-11.0977
▁时间一点点的过去	-11.0977
这样想着	-11.0979
一踩	-11.0979
进入到	-11.0979
大摇大摆的	-11.0979
这一界	-11.0983
▁韩立听到	-11.0983
两道人影	-11.0984
一阵嗡鸣	-11.0985
有限	-11.0989
大亮	-11.0989
在修仙界	-11.0989
传说	-11.099
▁这只	-11.0992
本阁	-11.0995
开口道	-11.0996
告辞了	-11.1
椅子	-11.1001
一直没有	-11.1002
向一侧	-11.1003
进了其中	-11.1007
交出	-11.1009
片刻间	-11.101
已经知道	-11.1012
黑色光柱	-11.1012
近身	-11.1013
结束了	-11.1015
取走	-11.1018
巨城	-11.1021
在旁边	-11.1023
将它	-11.1026
绝对不会	-11.1029
孩子	-11.103
才可能	-11.1033
扑向	-11.1034
在体内	-11.1038
勉强一笑	-11.1039
牵扯	-11.104
大名鼎鼎的	-11.1044
说出了让	-11.1045
一闪而出	-11.1046
门前	-11.1051
魔灵	-11.1051
为何不	-11.1051
也可能	-11.1055
在后面	-11.1055
出动	-11.1056
神通之大	-11.1058
三四丈	-11.1059
之用	-11.106
灰色光霞	-11.1061
可算是	-11.1061
偏门	-11.1065
大约	-11.1067
并肩	-11.1068
怠慢	-11.107
犹	-11.1073
从附近	-11.1077
银灿灿的	-11.1079
有些棘手	-11.1082
才勉强	-11.1084
▁以他	-11.1084
似乎比	-11.1086
我刚才	-11.109
打在了	-11.1093
嗡鸣之声	-11.1095
微一	-11.1096
终	-11.1096
堡	-11.1097
身形一闪	-11.1097
乾	-11.11
平和	-11.1101
翁	-11.1101
赞	-11.1102
捣	-11.1102
就一直	-11.1103
朗	-11.1104
添	-11.1104
诱惑	-11.1104
赫连商盟	-11.1104
修罗蛛族母	-11.1104
太阳精火	-11.1104
栾龙天君	-11.1104
势在必得	-11.1104
孤	-11.1104
青冥卫	-11.1104
无动于衷	-11.1104
教训	-11.1104
无穷无尽	-11.1104
为了以防万一	-11.1104
警告	-11.1104
挪移	-11.1104
枫岳	-11.1104
是真是假	-11.1104
方式	-11.1104
瓶盖	-11.1104
苍白无血	-11.1104
迟缓	-11.1105
虽然无法	-11.1105
摊位	-11.1105
破空声一响	-11.1105
青衫中年人	-11.1105
顺势	-11.1105
中最	-11.1106
火蟾兽	-11.1106
追兵	-11.1106
硕大	-11.1107
雕像	-11.1108
催使	-11.1109
卷入了其中	-11.111
并冲	-11.111
残破	-11.1111
单手一拍	-11.1112
银光灿灿	-11.1113
一股惊人	-11.1113
木夫人	-11.1113
甩开	-11.1113
十分之一	-11.1114
眉梢一动	-11.1114
合体期存在	-11.1114
通红	-11.1115
鼎上	-11.1119
右手	-11.1123
有用的	-11.1124
姓青年	-11.1126
罕有	-11.1127
又如何	-11.1129
一罩	-11.1131
一下子	-11.1132
马上就要	-11.1133
姓女子	-11.1133
一眼望去	-11.1134
赤红色	-11.1134
冷静的说道	-11.1136
妖猿	-11.1138
掩月宗的	-11.1138
百余丈外	-11.1143
大型	-11.1145
说出口	-11.1146
大有用处的	-11.1147
听出了	-11.1149
保留	-11.1156
魔风	-11.1157
▁诡异的一幕出现了	-11.1157
矮小	-11.1158
此举	-11.116
不惧	-11.1161
跳动	-11.1162
的第	-11.1163
瞳孔中	-11.1164
不支	-11.1165
般的一下	-11.1165
说法	-11.1166
了倍许	-11.1166
道理	-11.1167
到了此地	-11.1167
牵扯到	-11.1168
回话	-11.1169
粗细	-11.1169
劝说	-11.1171
射而出	-11.1174
▁也不知	-11.1176
三声	-11.1176
凝结成	-11.1178
即可了	-11.1178
的确如此	-11.1179
一抬首	-11.1184
海水	-11.1187
联手之下	-11.1187
却发现	-11.119
不再说什么了	-11.1191
一个闪动	-11.1198
附近空中	-11.1201
喝道	-11.1203
放手	-11.1206
误会了	-11.1207
▁韩立一见	-11.1207
水中	-11.1218
迈	-11.1219
可没	-11.1223
也太	-11.1225
声传出	-11.1225
就行	-11.1227
的无影无踪	-11.1234
转动不停	-11.1237
蚁	-11.1244
在乱星海	-11.1245
如此多人	-11.1246
怎么看	-11.1248
童	-11.125
向外	-11.1252
都已	-11.1254
其体内	-11.1254
人之多	-11.1258
营	-11.126
的资质	-11.126
五色灵光	-11.126
血雾中	-11.1261
军	-11.1261
施展什么	-11.1262
辨	-11.1262
和大汉	-11.1264
看清	-11.1267
骇	-11.1267
高高	-11.1269
嘴角泛起一丝	-11.1269
鲁	-11.1271
他们二人	-11.1271
寿	-11.1274
三天	-11.1274
攀	-11.1275
宇	-11.1275
壶	-11.1276
式样	-11.1276
天东商号	-11.1276
燕如嫣	-11.1276
天星双圣	-11.1276
悲	-11.1276
焦糊	-11.1276
浸	-11.1276
默不做声	-11.1276
订	-11.1276
秦宅	-11.1276
修为大进	-11.1277
搜寻	-11.1277
师姑	-11.1277
美眸	-11.1277
活捉	-11.1277
撕咬	-11.1277
在原地消失不见	-11.1277
不客气的说道	-11.1277
胜负	-11.1278
是轻而易举的事情	-11.1278
姓韩小子	-11.1278
白戚	-11.1279
狂闪不定	-11.1279
残影	-11.128
降低	-11.128
隐形	-11.1281
师兄弟	-11.1281
无穷	-11.1281
两大	-11.1281
难缠	-11.1281
龟妖	-11.1281
分支	-11.1281
林师兄	-11.1281
不仅	-11.1282
神师	-11.1283
人身	-11.1284
淡绿色	-11.1285
▁但是下一刻	-11.1287
接到	-11.1288
离去了	-11.1288
没有什么意见	-11.1288
有什么关系	-11.1288
朝远处	-11.1291
几大	-11.1291
沉吟了起来	-11.1291
目光一凝	-11.1293
精气	-11.1294
有这么	-11.1295
寸许长	-11.1296
也就算了	-11.1296
长长	-11.1297
魔焰门	-11.1297
也随之	-11.1298
人影一晃	-11.1299
既然知道	-11.13
获得	-11.1301
白面	-11.1302
天边处	-11.1303
好东西	-11.1303
略一思量下	-11.1303
旋转起来	-11.1304
一吹	-11.1304
冷笑的说道	-11.1306
仇家	-11.1308
生长	-11.1309
竟然连	-11.1312
不敢有丝毫	-11.1315
又怎可能	-11.1316
一凉	-11.1321
额头上	-11.1321
现世	-11.1321
停下了	-11.1321
目中闪过	-11.1327
毒性	-11.1328
看了一会儿	-11.1332
不时有	-11.1332
合体期修士	-11.1334
背着	-11.1335
谁也没有	-11.1337
甲衣	-11.1341
又一次	-11.1342
白白	-11.1343
一门	-11.1346
显得有些	-11.1347
付出	-11.1348
而且还是	-11.135
退出	-11.135
冷哼	-11.1352
从体内	-11.1356
转眼间化为	-11.1356
客气异常	-11.1356
大袖	-11.1358
乌黑发亮	-11.1359
▁看着	-11.137
死在	-11.1371
真实	-11.1373
多少年	-11.1378
如此厉害	-11.1379
不再迟疑	-11.138
结束后	-11.138
都未能	-11.1381
抵挡住	-11.1386
▁少妇	-11.1386
发挥出	-11.1387
丝线	-11.1389
未有	-11.139
壁上	-11.1391
超出	-11.1398
小舟	-11.1399
怪叫	-11.1401
最先	-11.1402
竟敢	-11.1403
望着眼前	-11.1405
从手中	-11.1407
这颗	-11.1408
十八	-11.1409
大仙师	-11.1411
结丹中期	-11.1412
两丈	-11.1415
四下一扫	-11.1419
血刃	-11.142
袭	-11.1421
说了两句	-11.1425
返	-11.1427
天大的	-11.1427
一生	-11.1431
知晓	-11.1432
此门	-11.1434
一心	-11.1434
有些不解	-11.1434
立刻化为	-11.1436
擒下	-11.1437
肥	-11.1437
凌	-11.1437
嘿嘿一笑的说道	-11.1438
一声惊呼	-11.1439
多年的	-11.1443
鬼魅	-11.1444
时间内	-11.1444
烈	-11.1444
正面	-11.1446
冲破	-11.1446
没有兴趣	-11.1446
摊	-11.1449
警	-11.1449
悟	-11.1451
诺	-11.1451
渐	-11.1451
血裙少女	-11.1452
万古族	-11.1452
阅历	-11.1452
敛衽一礼	-11.1452
遗骸	-11.1452
冰寒刺骨	-11.1452
联军	-11.1452
祖父	-11.1452
鸡肋	-11.1452
燕雨	-11.1452
恨恨	-11.1452
允许	-11.1452
缺陷	-11.1452
历代	-11.1452
本来面目	-11.1452
掩护	-11.1453
降灵符	-11.1453
黑风旗	-11.1453
仿制品	-11.1453
时不时的	-11.1453
▁四周	-11.1454
乌芒	-11.1454
鉴定	-11.1454
玄天之物	-11.1454
施主	-11.1455
从下方	-11.1455
放置	-11.1455
赵长老	-11.1455
冰凉	-11.1455
紫芒	-11.1455
的七七八八了	-11.1457
近在咫尺	-11.1457
飞针	-11.1457
同一方向	-11.1458
奇虫	-11.1458
能看出	-11.1459
之举	-11.1459
手指间	-11.146
当然不会	-11.1461
神仙	-11.1464
跟了过去	-11.1465
鸣叫	-11.1467
大不一样	-11.1468
通向	-11.1469
成为了	-11.147
山中	-11.147
脸色阴沉的	-11.147
攻城	-11.1471
无边	-11.1472
晶砖	-11.1472
结丹期的修士	-11.1475
冲高空	-11.1477
才真正	-11.1479
识趣	-11.1482
盘膝坐在	-11.1482
也不愿	-11.1482
可都是	-11.1483
有些事情	-11.1484
是啊	-11.1485
修炼的功法	-11.1486
抓住了	-11.1491
制作	-11.1494
一颤下	-11.1494
的名声	-11.1496
附带	-11.1496
块灵石	-11.1497
既有	-11.1499
两分	-11.1501
被硬生生	-11.1505
为兄	-11.1513
袖口	-11.1514
过程中	-11.1517
半晌之后	-11.1517
大作	-11.1518
战车	-11.152
两条手臂	-11.1521
两只手掌	-11.1521
扭动	-11.1522
无法动弹分毫	-11.1527
人情	-11.153
大半都	-11.1538
微微一闪	-11.1539
角落中	-11.1542
来对付	-11.1543
情不自禁的	-11.1544
除了一些	-11.155
身形一下	-11.1554
美女	-11.1555
落去	-11.1556
裸露	-11.1556
贵宗	-11.1557
韩立目光闪动几下	-11.1559
▁韩立脸色一沉	-11.1564
袋子	-11.1564
极品	-11.1565
不比	-11.1573
身材高大	-11.1574
有一点	-11.1576
提到了	-11.1577
半个	-11.1579
齐往	-11.158
了几句后	-11.1582
根本就是	-11.1583
哀	-11.1587
讨	-11.1589
殿堂中	-11.1591
此法	-11.1591
▁可韩立	-11.1592
▁两者	-11.1595
虽然同样	-11.1595
就走	-11.1598
地步	-11.16
但仍然	-11.1602
发生过	-11.1603
收进	-11.1605
此刻的他	-11.1606
隐隐觉得	-11.1606
有一座	-11.1606
最佳	-11.1606
披发	-11.1607
不敢轻易	-11.1618
大厅内	-11.1618
银虹	-11.1619
同行	-11.1621
炼体	-11.1621
蛮	-11.1622
当作	-11.1623
苦笑的说道	-11.1624
伏	-11.1626
开口说道	-11.1626
良	-11.1629
黑红	-11.163
魂飞魄散	-11.163
妻	-11.163
骚扰	-11.163
长吐一口气	-11.163
粘	-11.163
金阙玉书	-11.163
噼啪	-11.163
心念飞快转动	-11.163
晃了几晃	-11.163
灵缈园	-11.163
不翼而飞	-11.163
梵圣法相	-11.163
蒙山四友	-11.163
蓄	-11.163
银发女子	-11.163
楼梯	-11.163
八足魔蜥	-11.163
阻碍	-11.163
警戒	-11.163
彩霞	-11.1631
一队队	-11.1631
韩小友	-11.1631
一阵的骚动	-11.1631
消融	-11.1632
扔给了	-11.1632
射到了	-11.1632
一叠	-11.1632
血鸦城主	-11.1633
巨蟹	-11.1633
石亭	-11.1633
脸上现出一丝	-11.1633
冰雕	-11.1633
行踪	-11.1633
隔绝	-11.1633
希望能	-11.1633
看错	-11.1634
猛一看	-11.1635
有心	-11.1637
药香	-11.1638
低阶妖兽	-11.164
圈子	-11.1641
数十名	-11.1643
姑	-11.1643
收藏	-11.1643
胜算	-11.1644
踏入	-11.1645
但没想到	-11.1646
退去	-11.1647
的计划	-11.1647
玄玉	-11.1648
存活	-11.165
告辞离去	-11.165
将大半	-11.1651
在遁光中	-11.1653
平白	-11.1653
日子	-11.1655
的奇效	-11.1655
目光四下一扫	-11.1658
了一下后	-11.1658
先看看	-11.166
我当年	-11.166
数人	-11.1665
往外	-11.1665
恐怖气息	-11.1666
韩立嘿嘿一笑	-11.1667
躯	-11.1671
弄到	-11.1675
黑凤族	-11.1678
金色剑光	-11.1678
果真	-11.1679
真的是	-11.168
扫视了	-11.1681
竟无法	-11.1684
是何用意	-11.1685
力敌	-11.1685
真以为	-11.1685
比他	-11.1685
一般人	-11.1686
三尺	-11.1687
直通	-11.1689
击散	-11.1691
拦下	-11.1693
也根本	-11.1695
都知道	-11.1701
三团	-11.1701
神色凝重的	-11.1705
交给了	-11.1705
马车	-11.1705
的踪迹	-11.1705
张牙舞爪的	-11.1708
晚辈等人	-11.1709
凡	-11.171
半尺	-11.1712
有什么东西	-11.1712
挡下	-11.1713
没有想到	-11.1714
带上	-11.1718
也不好	-11.1719
松开	-11.1723
误会	-11.1724
炼气期修士	-11.1725
一滚	-11.1725
按在了	-11.1726
离开这里	-11.1727
耽误	-11.1732
全被	-11.1733
经历过	-11.1734
最后一个	-11.1738
巨岛	-11.174
为之一怔	-11.1741
泛起一层	-11.1743
此法诀	-11.1745
金色光晕	-11.1746
一座小山	-11.175
一翻	-11.175
退让	-11.1752
无法看清	-11.1753
鸣声	-11.176
晶壁	-11.1763
给对方	-11.1769
整个空间	-11.1771
告诉你	-11.1772
虽然因为	-11.1772
四壁	-11.1775
想了想	-11.1776
我不会	-11.1778
困在	-11.1786
▁片刻功夫	-11.1789
失望之色	-11.179
每个	-11.1797
将整个	-11.1799
所化巨猿	-11.18
近在咫尺的	-11.1802
大地	-11.1803
可真	-11.1804
罡	-11.1809
倒还真	-11.181
丁	-11.181
戒	-11.181
钢	-11.1811
曹	-11.1812
有两名	-11.1812
渺	-11.1812
阴冥之地	-11.1812
昊阳鸟	-11.1812
络腮胡子	-11.1812
又惊又怒	-11.1812
晦涩	-11.1812
眼皮底下	-11.1812
沸腾	-11.1812
皱了皱眉	-11.1812
血甲傀儡	-11.1812
噬灵火鸟	-11.1812
尸熊	-11.1812
庆典	-11.1812
魔道六宗	-11.1812
笼罩其下	-11.1812
宁愿	-11.1812
宣乐	-11.1812
信心十足	-11.1812
且慢	-11.1813
品尝	-11.1813
灰霞	-11.1813
姿色	-11.1813
溃散而灭	-11.1813
宽广	-11.1813
寒髓	-11.1813
调息	-11.1813
灰芒	-11.1814
宫装少妇	-11.1814
铜环	-11.1815
虚假	-11.1815
灵侍	-11.1815
袭击	-11.1815
望着远处	-11.1815
期待	-11.1815
驾驭遁光	-11.1815
五妹	-11.1816
圆月	-11.1817
国家	-11.1818
出了什么事情	-11.1819
回荡	-11.182
银尺	-11.1821
恢复了平静	-11.1821
挂着	-11.1822
信物	-11.1822
所在位置	-11.1823
自然不会再	-11.1825
一见此	-11.1825
这么大的	-11.1829
▁面对	-11.1829
拦住	-11.183
又如何能	-11.1832
没用	-11.1833
把手	-11.1833
甚至还有	-11.1834
挽留	-11.1835
谈不上什么	-11.1835
祭坛上	-11.1837
种子	-11.1838
果实	-11.1839
针对	-11.1843
十余道	-11.1846
发现什么	-11.1849
想到这里	-11.1849
太大了	-11.185
剩	-11.1851
有些异样	-11.1851
示意	-11.1853
为之一凝	-11.1854
预料之外	-11.1856
出现在了眼前	-11.1857
巨猿傀儡	-11.1859
注意到了	-11.1859
一个直径	-11.1863
不能再	-11.1863
霞	-11.1865
艳丽异常	-11.1866
不知如何	-11.1867
感觉到	-11.1867
厅堂中	-11.1874
流露	-11.1877
一蓬	-11.1877
连连点头	-11.1878
越来越大	-11.1878
中间处	-11.1878
躲过	-11.188
分出	-11.1882
以道友	-11.1882
风沙	-11.1883
与此同时	-11.1884
▁看到这一幕	-11.1886
流出	-11.1887
金灵	-11.1888
竟丝毫	-11.1888
同样被	-11.1888
一闪的浮现而出	-11.1889
此劫	-11.1891
可以轻易	-11.1891
正魔	-11.1892
说到	-11.1896
林中	-11.1897
转化	-11.1897
脸色却	-11.1898
就在这	-11.1901
其他一些	-11.1902
飞灵	-11.1902
新进	-11.1909
动人	-11.1909
冰山	-11.1911
走出来	-11.1916
也不算	-11.1919
的影子	-11.192
本身就	-11.1921
无头	-11.1925
但随后就	-11.1925
轮到	-11.1926
一下化为了	-11.1927
尖鸣声	-11.1929
蓬	-11.1932
随后他	-11.1934
手掌中	-11.1937
他所	-11.1937
说了几句	-11.1937
再次浮现而出	-11.1941
眨眼	-11.1941
炼气期的	-11.1945
想找	-11.1946
户	-11.1954
一脉	-11.1955
少见的	-11.1955
显现	-11.1956
辣手	-11.1957
脸上一丝	-11.1958
且	-11.1963
上前一步	-11.1965
直接向	-11.1968
干什么	-11.1969
往中间	-11.1969
韩立心中一动	-11.1971
不慌不忙的说道	-11.1973
是如何	-11.1973
谈不上	-11.1974
异光	-11.1975
并排	-11.1975
过分	-11.1977
弹跳	-11.1979
的下落	-11.1981
随即又	-11.1981
正站在	-11.1981
爆鸣	-11.1987
傲然	-11.1988
叔	-11.1989
姜	-11.199
恭	-11.199
的真实	-11.1992
之深	-11.1993
黄衫	-11.1994
原本想	-11.1994
眉宇	-11.1995
递	-11.1995
近前	-11.1996
嘻嘻	-11.1996
医	-11.1996
贫僧	-11.1997
奈何不了	-11.1997
痴心妄想	-11.1997
合二为一	-11.1997
金虹	-11.1997
紫衣女子	-11.1997
胡玉双	-11.1997
撇	-11.1997
斟酌	-11.1997
赢	-11.1997
墨玉珠	-11.1997
血骨门	-11.1997
别的不说	-11.1997
溪国	-11.1997
商讨	-11.1997
支援	-11.1998
竹筒	-11.1998
星辰	-11.1998
士兵	-11.1998
▁他虽然	-11.1998
火龙童子	-11.1998
防备	-11.1998
阴罗宗宗主	-11.1998
自嘲	-11.1998
合欢宗	-11.1998
的可能性	-11.1998
利益	-11.1998
幻化而成	-11.1999
苦笑之色	-11.1999
采取	-11.2
许老怪	-11.2
阵法之道	-11.2
炼制出来的	-11.2
谈论	-11.2001
法士大军	-11.2001
恶意	-11.2001
冒失	-11.2002
秘法	-11.2002
大出乎	-11.2003
香气	-11.2004
数层	-11.2004
虚言	-11.2004
广大	-11.2004
此怪物	-11.2005
口中咒语声	-11.2006
新出现的	-11.2006
掺入	-11.2007
意识到	-11.2007
之列	-11.2008
邪气	-11.2008
称为	-11.2009
弄清楚	-11.2009
一缕缕	-11.201
厉声	-11.2011
换上了	-11.2011
顶阶存在	-11.2011
长满	-11.2012
什么地方	-11.2013
这几日	-11.2014
心存	-11.2014
一斩而去	-11.2014
打起	-11.2016
这倒让	-11.2016
洞天	-11.2017
想到了	-11.2018
没见	-11.2018
巨环	-11.2018
所想	-11.2019
赠送	-11.2019
寒风	-11.2019
听对方	-11.2021
瞅着	-11.2022
挡下了	-11.2023
檀口	-11.2027
▁莫简离	-11.2029
门口处	-11.203
小鸟	-11.2034
但可惜的是	-11.2035
两道遁光	-11.2037
略一犹豫后	-11.2037
这么多年	-11.2038
扑向了	-11.2041
之所以会	-11.2043
趁着	-11.2044
滚动	-11.2046
一只青色	-11.2046
想也不想的	-11.2048
嗡嗡的	-11.2052
▁石昆	-11.2053
要多	-11.2053
放入	-11.2054
口处	-11.2054
表面遍布	-11.2056
的办法	-11.2057
将东西	-11.2059
笑吟吟的	-11.2059
抓去	-11.2063
好说	-11.2064
同阶存在	-11.2064
一出现	-11.2065
还原成了	-11.2066
半部	-11.2067
挡住了	-11.2068
低低的	-11.2068
狂涨起来	-11.2069
但随即就	-11.2073
一盛	-11.2076
完后	-11.2076
送给	-11.2079
同意了	-11.208
回转	-11.2087
摘下	-11.2091
还真要	-11.2091
神色阴晴不定	-11.2092
厚厚的	-11.2093
在天南	-11.2094
叔祖	-11.2099
缓缓问道	-11.21
扫了一下	-11.21
这般轻易	-11.21
谈话	-11.2102
不由	-11.2104
另外一人	-11.2105
和尚	-11.2107
当然可以	-11.2108
可如今	-11.2113
此间	-11.2114
神色平静的	-11.2119
化神后期	-11.212
竟幻化成	-11.2121
就打算	-11.2121
桌子	-11.2122
此情形	-11.2123
了几下后	-11.2125
忍不住的问道	-11.2128
韩立微然一笑	-11.2132
二十多	-11.2134
白虹	-11.2136
扔出	-11.214
但韩立却	-11.2144
与其	-11.2144
扫了一眼后	-11.2147
不停地	-11.2147
转眼间就到了	-11.2147
伴	-11.2148
一横	-11.215
上百道	-11.215
▁韩立神色一动	-11.215
入目	-11.215
顷刻间就	-11.2151
将目光一收	-11.2153
乌云中	-11.2153
来找	-11.2155
宝花道友	-11.2157
真火	-11.2158
带回	-11.2158
非但	-11.2159
一层淡淡	-11.216
几家	-11.216
的日子	-11.2162
一些小	-11.2164
千余年	-11.2165
袋中	-11.2165
飞进了	-11.2166
▁当他	-11.2167
明显是	-11.2168
也不迟	-11.2169
一模一样的	-11.2173
抬手冲	-11.2174
街	-11.2179
妾	-11.218
▁极阴祖师	-11.2182
毛骨悚然	-11.2184
就算再	-11.2185
梅	-11.2185
简陋	-11.2186
吞进了腹中	-11.2186
诚恳	-11.2186
黑压压	-11.2186
豹	-11.2186
碧眼大汉	-11.2186
悬殊	-11.2186
双修伴侣	-11.2186
浓郁	-11.2186
七妙真人	-11.2186
铁火蚁	-11.2186
寸寸的碎裂开来	-11.2186
许诺	-11.2186
收进了储物袋中	-11.2187
昏迷	-11.2187
奸细	-11.2187
瞅了瞅	-11.2187
融合一体	-11.2187
锦盒	-11.2187
一丝讶色	-11.2187
一翻手掌	-11.2188
刃芒	-11.2188
对在下	-11.2188
底价	-11.2188
青筱	-11.2188
反复	-11.2189
呼应	-11.2189
没有露出	-11.2189
溃散开来	-11.219
永远	-11.219
锁定	-11.219
只是想	-11.2192
圣女	-11.2192
几枚	-11.2193
毒雾	-11.2193
大乘期存在	-11.2193
引来	-11.2194
帮主	-11.2194
浮现在	-11.2194
金色甲虫	-11.2195
青光大放	-11.2196
响彻	-11.2197
一事	-11.2198
天地之力	-11.2198
师门	-11.2198
想说些什么	-11.2199
正当	-11.2203
自知	-11.2203
一抖之下	-11.2204
沉默了一下	-11.2206
挪开	-11.2206
提醒道	-11.2206
一压而	-11.2209
飞扑	-11.2211
争斗中	-11.2212
毁坏	-11.2213
眼里	-11.2213
两口飞剑	-11.2214
韩立所化巨猿	-11.2216
恢复法力	-11.2217
▁黑袍青年	-11.2217
你真以为	-11.2219
被逼	-11.2219
色变	-11.2224
一声闷响后	-11.2224
呈现出	-11.2225
竟连	-11.2225
有趣	-11.2225
一道青色	-11.2225
白色光幕	-11.2226
圣地	-11.2231
并一闪的	-11.2232
此秘术	-11.2235
那名叫	-11.2236
偶尔有	-11.2242
一挑	-11.2244
血气	-11.2245
精美	-11.2246
来及	-11.2247
天然	-11.2249
奇长	-11.2249
高级	-11.2251
并不时	-11.2251
没有意见	-11.2255
带有一丝	-11.2258
向空中	-11.2259
生气	-11.2259
不再言语	-11.226
契	-11.226
才缓缓	-11.2261
手腕上	-11.2261
女修士	-11.2265
苍白无比	-11.2266
没有机会	-11.2266
日夜	-11.2266
狂卷	-11.2267
这可不是	-11.2267
死去	-11.2271
直接没入	-11.2278
点指	-11.228
蛟首	-11.2285
每日	-11.2286
正是他	-11.2289
自不会	-11.2289
要不要	-11.2297
打断了	-11.2298
血光中	-11.23
交出来	-11.2302
晚了	-11.2304
孤零零的	-11.2307
振	-11.2307
找上	-11.231
来不及	-11.2312
修为到了	-11.2312
这些噬金虫	-11.2313
▁韩立神色	-11.2313
十余丈长的	-11.2314
战场	-11.2316
附近处	-11.2321
放到	-11.2322
直接洞穿	-11.2323
韩立和曲魂	-11.2323
顿时一道	-11.2323
冰妖	-11.2326
其他魔族	-11.2327
巨大法阵	-11.233
女孩	-11.2333
核	-11.2334
▁韩立对此	-11.2342
就凭空	-11.2346
给前辈	-11.2347
微微一变	-11.2351
现出一个	-11.2353
站在一旁	-11.2354
一收而起	-11.2356
可惜的是	-11.2356
张口喷出	-11.2357
一名面容	-11.2358
在前边	-11.2364
盆	-11.2365
往四周	-11.2367
有什么好	-11.2371
肯定不会	-11.2373
把玩	-11.2373
丫	-11.2374
承	-11.2374
园	-11.2375
侯	-11.2376
郡	-11.2377
你若	-11.2377
种植	-11.2378
导	-11.2378
弩	-11.2378
黑雨上人	-11.2378
摇头摆尾	-11.2378
手忙脚乱	-11.2378
挖	-11.2378
仆	-11.2378
你老人家	-11.2378
银袍女子	-11.2378
训斥	-11.2378
加快了	-11.2378
遗址	-11.2378
九仙山	-11.2378
燃烧	-11.2378
一声大吼	-11.2378
没有好气	-11.2379
隐蔽	-11.2379
节省	-11.2379
▁做完这一切后	-11.2379
好不容易	-11.2379
疏忽	-11.2379
鬼婆	-11.2379
李氏	-11.2379
豁然	-11.2379
灯焰	-11.2379
包裹在了其中	-11.2379
腹部	-11.238
医术	-11.238
巧妙	-11.238
充足	-11.238
报仇	-11.238
对外	-11.238
刺芒	-11.238
羽扇	-11.238
扩散	-11.238
蜂拥而出	-11.238
凝神细望	-11.2381
哀鸣	-11.2381
轰隆隆的巨响	-11.2382
古修	-11.2382
显露而出	-11.2383
心念一转	-11.2383
招待	-11.2385
低阶魔兽	-11.2385
我们现在	-11.2385
消失的方向	-11.2387
若是这样的话	-11.2387
▁对面的	-11.2387
的反问道	-11.2388
风柱	-11.2389
辅助材料	-11.2389
碗口粗	-11.2389
击退	-11.239
丈之高	-11.239
高阶魔兽	-11.239
车上	-11.2391
巨鸟	-11.2393
无一不是	-11.2393
拼着	-11.2395
存心	-11.2396
看穿	-11.2396
绿袍老者	-11.2398
血光化身	-11.2399
点燃	-11.2399
所知	-11.2399
小心翼翼的	-11.24
让在下	-11.24
四射	-11.2401
在内的	-11.2402
加上	-11.2404
书上	-11.2405
另一只手则	-11.2405
满头	-11.2407
十倍	-11.2407
这里就是	-11.2408
袭来	-11.2408
成了一个	-11.2409
一眯	-11.2409
察觉到了	-11.2409
大步向	-11.2411
黑暗	-11.2411
转过	-11.2415
手掌上	-11.2416
石桌	-11.2416
瞪了	-11.2416
青色巨剑	-11.2417
就只剩下	-11.2418
结下	-11.2421
从指尖处	-11.2422
但下一刻	-11.2423
困在了	-11.2423
光晕中	-11.2425
嘶鸣	-11.2425
这位是	-11.2427
圣山	-11.2427
毫不犹豫的说道	-11.2428
▁但未等	-11.243
猛然往	-11.243
多出了一个	-11.2432
上一扫	-11.2435
经过一番	-11.2437
解决掉	-11.2441
银子	-11.2441
加强	-11.2443
坏了	-11.2444
的踪影	-11.2444
太多了	-11.2444
的表现	-11.2445
青色剑气	-11.2446
一端	-11.2449
留给	-11.2452
兄妹	-11.2456
的建议	-11.2456
平时	-11.2457
手中多出了	-11.2458
▁此妖	-11.2459
露面	-11.2463
费心	-11.2466
几乎与此同时	-11.2466
当然不是	-11.2469
懒得	-11.2471
变身后	-11.2471
早知道	-11.2472
否则以	-11.2472
观看	-11.2473
之名	-11.2474
交给你	-11.2475
笔直的	-11.2476
被迫	-11.2479
虫海	-11.248
一动之下	-11.2481
数丈大小	-11.2483
灰色霞光	-11.2485
完全可以	-11.2485
就依	-11.2486
碰撞	-11.2493
满足	-11.2496
感受	-11.2496
霸	-11.2497
毫	-11.2498
身形一顿	-11.2498
修炼功法	-11.25
数根	-11.2503
冲出了	-11.2504
未免太	-11.2505
即使他	-11.2505
瞬间工夫	-11.2506
要害	-11.2507
遮挡	-11.2507
七八分	-11.2509
可以先	-11.2509
嗡	-11.2509
毁去	-11.2514
捧	-11.2517
斗大	-11.2517
一声怒吼	-11.2518
巨冰	-11.2521
出自	-11.2522
盯	-11.2528
额头	-11.2528
整间	-11.253
截然不同的	-11.253
有些无奈	-11.2531
一道金光	-11.2536
是不可能	-11.2537
可没想到	-11.2538
略一犹豫	-11.2538
轻而易举的	-11.2538
在了那里	-11.2539
本地	-11.2542
抬头	-11.2544
积	-11.2545
▁见此情景	-11.2546
早已被	-11.2551
刮	-11.2552
挪	-11.2553
被封印	-11.256
尖叫	-11.256
握着	-11.2563
戴	-11.2564
以对方	-11.2564
穴	-11.2565
无数符文	-11.2565
泣	-11.2566
望了几眼	-11.2567
背影	-11.2567
应该能	-11.2568
更高	-11.2568
一张嘴	-11.2568
透露	-11.257
挡住	-11.2571
弃	-11.2571
幽幽	-11.2572
髓	-11.2573
不知道友	-11.2574
清清楚楚	-11.2574
疼	-11.2574
是否真的	-11.2574
明王诀	-11.2574
自寻死路	-11.2574
昏迷不醒	-11.2574
王绝楚	-11.2574
柳水儿和石昆	-11.2574
乱石堆	-11.2574
和颜悦色	-11.2574
兹啦	-11.2574
打断	-11.2574
试剑大会	-11.2574
艰难	-11.2575
锁链	-11.2575
薄薄	-11.2575
尖锥	-11.2575
欢迎	-11.2575
传讯	-11.2575
毫无感情	-11.2575
此獠	-11.2575
屋顶	-11.2576
些时间	-11.2576
轻笑了一声	-11.2577
助我	-11.2577
呼呼	-11.2577
为首少年	-11.2577
雷云子	-11.2577
烈火	-11.2578
森林	-11.2578
不堪一击	-11.2578
韩师叔	-11.2578
一涌	-11.2578
法旗	-11.2578
上万	-11.2578
近在咫尺的地方	-11.2579
喷了出来	-11.258
另寻	-11.258
之策	-11.258
其身躯	-11.2581
指甲	-11.2582
黄沙	-11.2582
银翅	-11.2583
角色	-11.2584
找不到	-11.2584
巨掌	-11.2585
光轮	-11.2586
其中一只	-11.2587
赔笑	-11.2588
怒火	-11.2588
第二日	-11.2589
属性的	-11.259
冰冷女子	-11.259
有把握	-11.259
见礼	-11.259
飞遁而出	-11.2591
白丝	-11.2592
尽是	-11.2592
成熟体噬金虫	-11.2593
这些宝物	-11.2593
三夫人	-11.2594
几眼后	-11.2595
攻破	-11.26
一样东西	-11.26
如此之大	-11.26
终于从	-11.2603
城外	-11.2608
投入	-11.261
笼罩其中	-11.2611
头发	-11.2613
之遥	-11.2615
狰狞之色	-11.2616
紫金色	-11.2616
激发了	-11.2617
我记得	-11.2617
瞪	-11.2618
微笑着	-11.262
一前一后	-11.262
心意	-11.2621
追查	-11.2621
池水	-11.2622
弄到手	-11.2623
不动一下	-11.2623
我们两族	-11.2624
有那么	-11.2624
典籍上	-11.2625
神识强大	-11.2626
离他	-11.2626
淡然的说道	-11.2626
而碎	-11.2627
高台上	-11.2632
自然也不会	-11.2636
早已经	-11.2636
关系到	-11.2637
自家	-11.2637
什么宝物	-11.2638
悠悠的说道	-11.2639
人族中	-11.2642
平台	-11.2643
此车	-11.2645
大印	-11.2646
又要	-11.2647
看来你	-11.2649
露出一丝笑容	-11.265
同类	-11.2652
瞥了	-11.2654
又冲	-11.2654
此元婴	-11.2661
露出一丝笑意	-11.2661
一下浮现而出	-11.2664
所见	-11.2666
▁韩立眉梢一挑	-11.267
颜色各异	-11.2672
来不及了	-11.2674
魔族卫士	-11.2675
也觉得	-11.2676
城头上	-11.2679
否认	-11.2679
没听说过	-11.268
是不会	-11.2682
倒真	-11.2683
坐在椅子上	-11.2685
嘴角一动	-11.2686
晶莹剔透的	-11.2688
只剩下了	-11.2688
四下打量	-11.269
光芒一敛后	-11.2691
金道友	-11.2696
指的是	-11.2699
闪动不停	-11.27
的道理	-11.27
心念	-11.2702
密林中	-11.2704
主殿	-11.2707
了两下	-11.2714
有些不安	-11.2716
几样	-11.2717
绝不敢	-11.2719
裂缝中	-11.2722
自然也是	-11.2722
轻微的	-11.2722
爆发出刺目	-11.2723
逃过	-11.2724
回答道	-11.2725
不怎么	-11.2725
一条条	-11.2726
淡白色	-11.2726
▁见韩立	-11.2727
就化为一团	-11.2727
一只巨大	-11.2728
巨舟上	-11.2728
化为一根	-11.273
苍老	-11.273
其身后	-11.2732
五颗	-11.2732
三家	-11.2733
进入此地	-11.2735
灭族	-11.2735
一行	-11.2735
抓下	-11.2736
是打算	-11.2738
向这边	-11.2738
数只	-11.2739
血毒	-11.2739
没有理会	-11.2741
稳稳	-11.2741
自然不是	-11.2741
相差	-11.2743
相同的	-11.2747
扭曲变形	-11.2751
光团中	-11.2751
点点头后	-11.2751
举起	-11.2752
光手	-11.2758
典籍中	-11.276
但是现在	-11.2767
尝	-11.2767
虫王	-11.2767
邀	-11.277
答	-11.277
数颗	-11.2771
沟	-11.2771
魏	-11.2771
赫	-11.2773
大海	-11.2773
丰富	-11.2774
泰	-11.2774
同归于尽	-11.2774
风雨不透	-11.2774
关键时候	-11.2774
烟消云散	-11.2774
五子同心魔	-11.2774
瑚	-11.2774
嗡嗡作响	-11.2774
残缺不全	-11.2774
身负重伤	-11.2774
天泉峰	-11.2774
羊老二	-11.2774
佳人	-11.2774
暴虐	-11.2774
疾驰	-11.2774
优雅	-11.2774
山腰处	-11.2775
到了极点	-11.2775
姜姓老者	-11.2775
谋划	-11.2775
坐在了	-11.2775
迎风一涨	-11.2775
掩盖	-11.2775
修为最高的	-11.2775
双翅一扇	-11.2775
鼎炉	-11.2775
付家老祖	-11.2775
机缘巧合	-11.2776
最主要的	-11.2776
尺许大的	-11.2777
缠斗	-11.2777
空旷	-11.2777
雷鸣声大起	-11.2777
出手相救	-11.2777
牌楼	-11.2777
暗叫一声	-11.2777
血色试炼	-11.2777
顶层	-11.2778
减弱	-11.2778
两座极山	-11.2778
片区域	-11.2779
王师叔	-11.2781
圣主	-11.2781
白袍青年	-11.2781
青纹	-11.2782
一现而出	-11.2782
吓得	-11.2783
在了原地	-11.2783
充斥着	-11.2784
都必须	-11.2785
上半身	-11.2785
三百年	-11.2786
一艘	-11.2786
硬拼	-11.2786
谷长老	-11.2787
的经验	-11.2788
抬首向	-11.2788
对策	-11.2788
一冲而出	-11.2789
魔核	-11.2789
早一步	-11.279
仙家	-11.279
前肢	-11.2791
▁蟹道人	-11.2791
玄玉洞	-11.2794
比我	-11.2794
尸气	-11.2796
一道青光	-11.2796
修为境界	-11.2796
顾及	-11.2796
通往	-11.2796
回想起	-11.2798
翻身栽倒	-11.2798
悬挂	-11.2803
放出来	-11.2806
未动一下	-11.2806
在大厅	-11.2807
魔族女子	-11.2808
弄明白	-11.2809
看着眼前	-11.2809
隔着	-11.281
一拱手	-11.2818
详	-11.282
蹿	-11.282
第三只	-11.2821
每一根	-11.2824
大败	-11.2825
百倍	-11.2828
二魔	-11.2828
送到	-11.2828
竹林	-11.283
几句后	-11.2831
要好好	-11.2834
火蛇	-11.2835
在下方	-11.2838
死人	-11.2838
听到此言	-11.2846
内部	-11.2846
的耳目	-11.2847
说笑	-11.2848
见韩立这般	-11.2848
口中却	-11.2854
在屋内	-11.2855
封锁	-11.2856
自然不知道	-11.2856
施展神通	-11.2857
血水	-11.286
对头	-11.2862
不希望	-11.2862
樱	-11.2863
看看是否	-11.2865
▁心中如此想	-11.2866
将此宝	-11.2868
心动	-11.2869
但口中却	-11.2873
飞快缩小	-11.2875
离地	-11.2876
将其身形	-11.2876
一般来说	-11.2876
韩立不动声色的	-11.2877
有些怪异	-11.2877
还未等	-11.2878
打得	-11.288
担心之色	-11.2882
也没有什么	-11.2888
十层	-11.2889
冲身前	-11.289
每一个	-11.2892
准备好	-11.2893
家主	-11.2895
其他事情	-11.2896
一卷而过	-11.2896
路口	-11.2899
大战中	-11.2902
灵舟	-11.2903
万里之外	-11.2906
方形	-11.2906
相处	-11.2907
什么事	-11.2908
留心	-11.2909
似乎对此	-11.2914
今	-11.2915
想起什么	-11.2916
要找	-11.2916
神力	-11.2917
早上	-11.2917
怔	-11.2918
曾经在	-11.2918
一番后	-11.2918
往往	-11.292
金花	-11.292
有些骇然	-11.2925
面色苍白	-11.2926
发出一阵	-11.2927
入了其中	-11.293
但马上又	-11.2934
上看	-11.2935
想了一想	-11.2936
带出	-11.2941
牵制	-11.2943
马上离开	-11.2943
一顿饭工夫后	-11.2944
对这一切	-11.2945
杀人	-11.2949
光柱一喷而出	-11.2951
练功	-11.2953
水池	-11.2956
极远	-11.2957
佳	-11.2958
决不能	-11.2958
渊	-11.296
体形狂涨	-11.296
说得	-11.2965
让其他人	-11.2966
急剧	-11.2967
铺天盖地	-11.2968
对话	-11.2971
所谓	-11.2972
坐了下来	-11.2974
左	-11.2975
红衣	-11.2975
灾	-11.2976
蜂拥	-11.2976
规	-11.2976
坛	-11.2977
道路	-11.2977
醉	-11.2978
挣	-11.2978
纵横	-11.2978
沾染	-11.2978
天机阁	-11.2978
巅峰	-11.2978
砍	-11.2978
魔晶傀儡	-11.2978
鲸	-11.2978
妃筱汐	-11.2978
摇摇欲坠	-11.2978
召集	-11.2978
桃	-11.2978
疲倦	-11.2978
无缘无故	-11.2978
盘膝而坐	-11.2978
移植	-11.2978
一打而开	-11.2978
一跺足	-11.2978
白须老者	-11.2978
眉头皱了一皱	-11.2979
挥舞	-11.2979
明智之举	-11.2979
在半路上	-11.2979
采摘	-11.2979
枭	-11.2979
涨缩不定	-11.2979
增幅	-11.2979
修习	-11.2979
地血老怪	-11.2979
枝条	-11.2979
一大截	-11.2979
沙粒	-11.2979
罩在了其内	-11.2979
遮蔽住	-11.298
冷汗	-11.298
看上一看	-11.298
寒潭	-11.298
电丝	-11.298
莲瓣	-11.298
看了韩立一眼	-11.298
飞升仙界	-11.298
蓝城主	-11.298
秦平	-11.298
奇妙	-11.298
闪亮	-11.2981
凝聚而成	-11.2981
韩立淡淡的说道	-11.2981
援手	-11.2981
群中	-11.2981
体验	-11.2981
忧心	-11.2981
黄衫少女	-11.2982
脱困而出	-11.2982
单手托着	-11.2982
岁月	-11.2983
高达	-11.2983
一放而出	-11.2984
叶仙子	-11.2985
击碎	-11.2985
木牌	-11.2986
面色一沉	-11.2986
增进	-11.2986
看似随意的	-11.2986
轻叹一声	-11.2988
专心	-11.2988
急转	-11.2989
族长	-11.2989
了一番后	-11.2989
字眼	-11.299
虚化	-11.2991
法阵禁制	-11.2991
瞪着	-11.2991
阴魂	-11.2991
把玩着	-11.2991
化为了一道	-11.2993
泛着	-11.2994
飞蛇	-11.2995
天价	-11.2999
已将	-11.2999
从袋中	-11.2999
五色符文	-11.3001
为之一顿	-11.3003
先一步	-11.3004
位子	-11.3005
灵活	-11.3006
不敢相信	-11.3008
要事	-11.301
和曲魂	-11.301
长刀	-11.3011
性子	-11.3011
的痕迹	-11.3013
自主	-11.3014
韩立身影	-11.3015
白袍人	-11.3016
▁一声闷响	-11.3017
一离开	-11.3018
魔婴	-11.3019
韩立叹了一口气	-11.3021
踌躇了一下	-11.3024
李长老	-11.3024
又有何	-11.3025
宗派	-11.3025
住手	-11.3026
全开	-11.3028
为何要	-11.3029
忽然传来	-11.3031
到底是	-11.3032
当年我	-11.3033
剑上	-11.3033
淡青色	-11.3037
跑出	-11.3038
目瞪口呆了	-11.3038
一咬	-11.3041
觉得自己	-11.3045
魔光	-11.3045
怎能	-11.3046
似乎真	-11.3048
让我等	-11.3057
肯定的说道	-11.3061
一掌	-11.3061
乖乖	-11.3063
留意	-11.3065
一个古怪	-11.3069
十来	-11.3071
心中大为	-11.3073
失去	-11.3078
紫雾	-11.3079
进城	-11.3079
一团黑气	-11.3079
堵住	-11.308
禁制符箓	-11.3081
的破空而走	-11.3082
说的是	-11.3083
次数	-11.3083
听到对方	-11.3084
有能力	-11.3086
这次来	-11.3089
二百	-11.3095
最为	-11.3096
脸孔上	-11.3099
再无其他	-11.3102
光罩上	-11.3103
生存	-11.3104
蓝衣	-11.3104
直直的	-11.3109
肯定有	-11.3112
大开	-11.3113
屋外	-11.3114
迟疑之色	-11.3115
越大	-11.3117
惊动了	-11.3117
山谷中	-11.3118
面现一丝	-11.3119
极高	-11.312
之所	-11.3121
当真	-11.3121
修士来说	-11.3121
达成	-11.3125
就不要	-11.3126
一推	-11.3128
这一趟	-11.3129
绿火	-11.3136
枝	-11.3137
一前一后的	-11.3138
待了	-11.3144
笑眯眯的	-11.3145
接近了	-11.3146
怪鸣	-11.3148
头颅大小的	-11.3151
每一个都	-11.3152
一声尖鸣	-11.3153
应该不是	-11.3154
这些灵药	-11.3157
问起	-11.3158
趟	-11.3161
▁虽然不知道	-11.3161
种类	-11.3167
总比	-11.3168
成熟体	-11.317
的语气	-11.3171
这一步	-11.3174
一马	-11.3176
被硬生生的	-11.3176
想办法	-11.3179
奈	-11.3183
戚	-11.3183
殿外	-11.3185
讯	-11.3185
陈	-11.3185
不慌不忙	-11.3186
贤弟	-11.3187
羊	-11.3187
愧	-11.3187
魔髓钻	-11.3187
棋	-11.3187
融为一体	-11.3187
封魂咒	-11.3187
嘴角微微一翘	-11.3187
万妖谷	-11.3187
孤身一人	-11.3187
岳阳宫	-11.3187
迫不及待	-11.3187
二十余岁	-11.3187
水缸	-11.3187
扑面而来	-11.3187
皂袍	-11.3187
屠	-11.3187
雄	-11.3187
溶解	-11.3187
空鱼族	-11.3187
脑袋	-11.3187
耸立在	-11.3187
至木灵婴	-11.3187
一排排	-11.3187
裂痕	-11.3187
话题一转	-11.3187
灰袍僧人	-11.3188
雷鸣声一响	-11.3188
▁不过当	-11.3189
丁点	-11.3189
从未听说过	-11.319
初级	-11.319
石蝶	-11.319
百余名	-11.319
夺取	-11.3191
乐意	-11.3191
脱手	-11.3191
应敌	-11.3192
轻轻一弹	-11.3192
太快	-11.3193
一张大口	-11.3193
若有所思之色	-11.3193
血龙	-11.3193
精元	-11.3194
驻地	-11.3194
大有关系	-11.3194
另一处地方	-11.3194
▁而与此同时	-11.3194
接触到	-11.3195
雷鸣声一起	-11.3195
奇香	-11.3196
男女修士	-11.3196
走运	-11.3196
这件事	-11.3196
讨要	-11.3197
拍卖行	-11.3197
白莲	-11.3197
雷海	-11.3198
▁在此期间	-11.3199
光凭	-11.3199
拜入	-11.3199
已久	-11.32
到了极致	-11.3201
雷云	-11.3204
其他大陆	-11.3205
打斗	-11.3207
小徒	-11.3207
▁现在他	-11.3211
他很清楚	-11.3211
有些不满	-11.3213
躲藏	-11.3215
也不说话	-11.3216
面临	-11.3218
筑基期的修士	-11.3218
冷冷说道	-11.322
一些东西	-11.3224
轻飘飘	-11.3225
漂浮着	-11.3225
门人	-11.3227
连弹	-11.3228
和那位	-11.3229
夜叉族	-11.3229
三日	-11.3231
有些失望	-11.3231
现出身形	-11.3235
数千年	-11.3235
当成了	-11.3237
捧着	-11.3238
等一干	-11.3239
一身神通	-11.324
提出了	-11.324
衣袖	-11.324
到灵界	-11.3241
并非是	-11.3243
青色小剑	-11.3244
也顶多	-11.3246
最后一名	-11.3253
听到此	-11.3254
生擒	-11.3255
四面	-11.3255
装着	-11.3256
漫不经心的	-11.3256
一共	-11.3257
内心	-11.3258
有些愕然	-11.3258
身手	-11.3259
尽可	-11.3262
出口处	-11.3263
什么样的	-11.3272
化为一道道	-11.3272
陨落掉了	-11.3277
如此诡异	-11.3284
大急	-11.3289
必须要	-11.3292
哪一位	-11.3292
无法动弹分毫了	-11.3294
沉吟了一会儿	-11.3296
一团白光	-11.3299
形成了一个	-11.3301
出力	-11.3302
可行	-11.3304
▁马良	-11.3305
顶尖	-11.3311
很多	-11.3311
贵门	-11.3318
一挥手	-11.332
不禁一怔	-11.3322
这个人	-11.3322
舍利	-11.3323
的目光中	-11.3326
青色霞光	-11.333
这一日	-11.3332
思量了一下	-11.3334
数十口	-11.3339
三年	-11.3342
光阵中	-11.3344
天地灵气	-11.3344
大乘境界	-11.3345
没有多说什么	-11.3346
抗	-11.3347
其他宝物	-11.3349
巴	-11.3354
撞到了	-11.3356
也根本无法	-11.3357
似乎想起了什么	-11.3362
请前辈	-11.3363
双目一睁	-11.3367
只要你	-11.3367
烦	-11.3369
锋	-11.3373
挽	-11.3373
其他东西	-11.3373
逃之夭夭了	-11.3374
不绝	-11.3375
灌	-11.3375
蒲团	-11.3377
一响	-11.3379
怜	-11.3381
镜面	-11.3382
沉闷	-11.3382
不急	-11.3384
毛发	-11.3385
准备好了	-11.3386
下风	-11.3391
若有若无	-11.3392
熊	-11.3395
妃	-11.3396
连闪	-11.3397
想看看	-11.3398
长袖	-11.3398
没有必要	-11.3399
膝	-11.3399
宠	-11.3399
欠	-11.3399
全身而退	-11.3399
忘情诀	-11.3399
从容不迫	-11.3399
山岳巨猿	-11.3399
狮禽兽	-11.3399
妙曼	-11.3399
红发老者	-11.3399
鸡	-11.3399
希望如此吧	-11.3399
娜	-11.3399
三十余岁	-11.3399
六连殿	-11.3399
地动山摇	-11.3399
微乎其微	-11.3399
神不知鬼不觉	-11.34
青面獠牙	-11.34
僵持不下	-11.34
昆吾殿	-11.34
元瑶和妍丽	-11.34
一冒而出	-11.34
广源斋	-11.34
排斥	-11.34
胀	-11.34
读	-11.34
卧室	-11.34
镇魔塔	-11.34
须弥	-11.34
杀戮	-11.34
尾巴	-11.34
拦截	-11.34
缓缓的问道	-11.34
停下了脚步	-11.34
脖子	-11.34
十指连弹	-11.34
瘴气	-11.34
唤醒	-11.34
触须	-11.34
沉默不语	-11.34
毙命	-11.3401
金刚罩	-11.3401
上古时期	-11.3401
叹息了一声	-11.3401
让你们	-11.3401
吃亏	-11.3401
从其身上	-11.3402
港口	-11.3402
祭了出去	-11.3402
蛮力	-11.3402
阵旗阵盘	-11.3402
低矮	-11.3402
家父	-11.3403
对待	-11.3403
那层	-11.3403
张奎	-11.3403
力士	-11.3404
高深莫测	-11.3404
婴火	-11.3404
内星海	-11.3405
尺影	-11.3405
万里外	-11.3405
常年	-11.3405
黄袍大汉	-11.3405
黑袍大汉	-11.3406
狠狠砸	-11.3407
去见	-11.3408
流失	-11.3408
鬼爪	-11.3408
不情愿	-11.3408
在前面	-11.3408
黑血	-11.3408
听完之后	-11.3408
十余名	-11.3409
看见了	-11.3409
就要将	-11.3409
这二位	-11.341
沉声说道	-11.3411
炼器材料	-11.3411
小狐	-11.3412
一睁	-11.3413
一扑而去	-11.3413
数步	-11.3413
防守	-11.3413
谷兄	-11.3414
含有	-11.3415
小女	-11.3416
触动	-11.3416
竟是那	-11.3416
虫魔	-11.3418
一捏	-11.342
突然出现	-11.342
化为一道青光	-11.342
破除禁制	-11.3421
一把抓去	-11.3422
微颤	-11.3424
第九层	-11.3426
灵车	-11.3427
备用	-11.3429
一刻钟后	-11.3429
出面	-11.343
眼色	-11.343
似笑非笑的说道	-11.343
牵	-11.3432
魔道之人	-11.3433
蓝道友	-11.3434
空间之力	-11.3435
银灿灿	-11.3435
自然大喜	-11.3435
小半日后	-11.3436
泛出	-11.3441
无比起来	-11.3441
在哪里	-11.3442
眼珠一转	-11.3442
大喝	-11.3443
笼罩住	-11.3443
闪过一丝讶色	-11.3444
有些熟悉	-11.3447
此殿	-11.3447
金剑	-11.3448
男人	-11.3451
这位韩道友	-11.3451
一小片	-11.3451
般巨大	-11.3453
从中飞出	-11.3455
轻吐了一口气	-11.3456
青色飞剑	-11.3456
进入广寒界	-11.3459
小家伙	-11.346
但心中却	-11.346
头脑	-11.3461
石道友	-11.3463
看了几眼	-11.3468
有意	-11.3468
不到哪里去	-11.3473
从储物袋中	-11.3474
▁这样一来	-11.3476
远遁	-11.3476
闭关修炼	-11.3481
但好在	-11.3481
悬浮在那里	-11.3484
竟似	-11.3485
发寒	-11.3487
两耳	-11.3488
单手一挥	-11.3491
有名的	-11.3492
数千丈	-11.3493
天南修士	-11.3494
围着韩立	-11.3494
一接触下	-11.3496
▁厉飞雨	-11.3497
不再说什么	-11.3502
姐	-11.3503
冲去	-11.3503
▁黑甲大汉	-11.3505
三条	-11.3506
当其	-11.3507
▁韩立看着	-11.3508
动也不动的	-11.351
此丹药	-11.3516
窗口	-11.352
石山	-11.352
伤到	-11.3526
似乎看出了	-11.3528
避过	-11.3531
此灵物	-11.3532
老者闻言	-11.3533
和一位	-11.3536
已到了	-11.3537
把目光	-11.3542
停留在	-11.3542
体表金光	-11.3542
原本看似	-11.355
浓密	-11.3551
对方身上	-11.3551
宫中	-11.3553
耳目	-11.3555
数丈长的	-11.3558
射入了	-11.3561
接口什么	-11.3562
旋	-11.3573
所有修士	-11.3576
乳	-11.3577
发动了	-11.3583
阴火	-11.3586
真打算	-11.3587
肆无忌惮的	-11.3593
再做	-11.3595
五层	-11.3595
玄武	-11.3595
有些不同	-11.3598
双目微眯	-11.3599
道姑	-11.36
受到了	-11.3602
白道友	-11.3603
悬浮在半空中	-11.3604
称奇	-11.3605
掌握了	-11.3605
二来	-11.3606
几步走到	-11.3607
黑霞	-11.3609
有些难以置信	-11.3609
留着	-11.3609
▁一声惊天动地的巨响	-11.3609
促	-11.361
卜	-11.3614
噬	-11.3614
魅	-11.3615
磁	-11.3616
咧	-11.3616
衰	-11.3616
乾坤	-11.3616
豪	-11.3617
求之不得	-11.3617
一命呜呼	-11.3617
笨	-11.3617
钟卫娘	-11.3617
蠢蠢欲动	-11.3617
钟灵道	-11.3617
一日一夜	-11.3617
暴雨般	-11.3617
活生生	-11.3617
无声息的	-11.3617
补偿	-11.3617
展颜一笑	-11.3617
窥视	-11.3617
车厢	-11.3617
温婉	-11.3617
巡视	-11.3617
小修罗界	-11.3617
叶颖	-11.3617
窝	-11.3617
要多加小心	-11.3617
暗兽森林	-11.3618
三大始祖	-11.3618
绿发异族	-11.3618
武器	-11.3618
田掌柜	-11.3618
娇容	-11.3618
激荡	-11.3618
反弹而开	-11.3618
燕家老祖	-11.3618
袖袍一拂	-11.3618
有些麻烦了	-11.3618
激怒	-11.3618
爽快	-11.3618
慕兰法士	-11.3618
红霞	-11.3619
佛宗	-11.3619
照顾	-11.3619
数丈大	-11.3619
纵身	-11.3619
骨矛	-11.362
银霞	-11.362
合体级存在	-11.362
书院	-11.362
娇小女子	-11.362
虚弱	-11.3621
五色寒焰	-11.3621
满脸笑容的	-11.3622
一罩而去	-11.3622
红线	-11.3623
大有来历	-11.3623
黑甲女子	-11.3623
原以为	-11.3623
▁看到这里	-11.3623
严重	-11.3623
结交	-11.3623
许仙子	-11.3624
碰上了	-11.3625
绝色	-11.3626
金猿	-11.3626
竟然真	-11.3626
两名血袍人	-11.3626
院子	-11.3627
连一丝	-11.3627
黑色火焰	-11.3627
正好击在了	-11.3627
水属性	-11.3628
差错	-11.3628
冰属性	-11.3629
一下幻化成	-11.363
韩立心中一凛	-11.363
青色大手	-11.363
识破	-11.363
无声的浮现而出	-11.3633
天煞	-11.3633
紫云	-11.3636
惊怒之下	-11.3637
新近	-11.3638
精致异常	-11.3639
竟如同	-11.3639
体力	-11.3639
地血	-11.3639
在思量着什么	-11.364
多少万年	-11.3641
在霞光中	-11.3641
麒麟虚影	-11.3642
两颗头颅	-11.3643
两边	-11.3643
遭受	-11.3645
苦心	-11.3648
离开了此地	-11.3649
半点	-11.365
人面	-11.3653
犹若	-11.3653
注视下	-11.3655
之意都没有	-11.3657
注意力	-11.3659
所指	-11.366
就无声无息的	-11.366
可爱	-11.3662
三妖	-11.3667
对韩立说道	-11.3667
▁更何况	-11.3668
飞回到了	-11.3668
如此轻易	-11.367
这面	-11.3671
顶着	-11.3671
玉容上	-11.3672
相貌普通	-11.3673
▁不可思议的一幕出现了	-11.3673
小马	-11.3674
这般说	-11.3675
沙雾	-11.3675
那柄	-11.3678
丧失了	-11.3678
对此女	-11.3679
基本	-11.3683
石某	-11.3684
默然了一会儿	-11.3691
此种事情	-11.3693
威力不小	-11.3695
山腹中	-11.3698
射向了	-11.3699
轻微	-11.3702
熔岩湖	-11.3704
没有一丝	-11.3706
裂开了	-11.3706
你们这些	-11.3706
眉梢一挑	-11.3707
盯住了	-11.3708
▁一听这话	-11.3711
这怎么可能	-11.3713
一股强大	-11.3713
一包	-11.3714
十余丈长	-11.3715
十余日	-11.3717
不像是	-11.3722
之快	-11.3723
才重新	-11.3723
送来	-11.3724
淡淡的回道	-11.3725
绝不能	-11.3726
话音刚落	-11.3727
没有什么问题	-11.3728
一听到	-11.373
洁	-11.3731
直冲	-11.3732
负伤	-11.3733
嘴上	-11.3733
腥气	-11.3733
忽然冲	-11.3734
上风	-11.3734
不介意	-11.3735
活物	-11.3736
低喝	-11.3736
额	-11.374
凭空消失	-11.3743
去寻找	-11.3746
再仔细	-11.3749
有些讶然	-11.375
四条	-11.3756
鳞甲	-11.3757
微眯	-11.3762
六目	-11.3763
大宗	-11.3764
见到过	-11.3766
唇	-11.3768
全靠	-11.3771
是货真价实的	-11.3772
固定	-11.3775
袋口	-11.3777
丝毫不见	-11.3778
递给了	-11.378
他自然不会	-11.3781
一皱	-11.3783
在了其内	-11.3787
火海中	-11.379
狂涨数倍	-11.3791
光霞中	-11.3791
贵宫	-11.3792
这真是	-11.3795
等东西	-11.3799
精炼	-11.3804
飞入了	-11.3806
高价	-11.3809
久待	-11.381
再继续	-11.3812
妖化	-11.3814
激灵	-11.3815
敛	-11.3818
一只手臂	-11.3822
出其不意	-11.3822
擒	-11.3823
夸	-11.3824
否则也不会	-11.3826
陇家老祖等人	-11.3829
留在这里	-11.383
罚	-11.3831
收到了	-11.3833
如此一问	-11.3833
都未曾	-11.3833
担	-11.3834
激射出	-11.3834
纵	-11.3834
如何能	-11.3835
进一步	-11.3835
妖尸	-11.3836
筱	-11.3836
搜	-11.3836
赏	-11.3837
缝	-11.3837
哭	-11.3837
脸上现出	-11.3838
青阳门	-11.3839
惭愧	-11.3839
故作不知	-11.3839
试上一试	-11.3839
逃得性命	-11.3839
船舱	-11.3839
得不偿失	-11.3839
恭恭敬敬的	-11.3839
点了下头	-11.3839
乡	-11.3839
秃头魔族	-11.3839
暗暗叫苦	-11.3839
流淌	-11.3839
一字字的	-11.3839
偷窥	-11.3839
放下心来	-11.3839
飞灰湮灭	-11.3839
绑	-11.3839
▁心中如此思量着	-11.3839
黎	-11.3839
奥妙	-11.3839
捆束	-11.3839
揭	-11.3839
狂喷而出	-11.3839
一盏茶功夫	-11.3839
拦阻	-11.3839
肖姓女子	-11.3839
贵宾	-11.3839
练习	-11.3839
一声轻咦	-11.3839
执掌	-11.384
娇艳	-11.384
茶杯	-11.384
关注	-11.384
服食	-11.384
贵盟	-11.3841
一掐法诀	-11.3841
香炉	-11.3841
调查	-11.3841
目中凶光一闪	-11.3841
惊醒	-11.3842
细针	-11.3842
精芒	-11.3842
交谈着什么	-11.3842
狂攻	-11.3842
被斩	-11.3842
小婢	-11.3843
孙女	-11.3843
声势惊人之极	-11.3843
鬼兵	-11.3844
飞叉	-11.3844
飞升灵界	-11.3844
锦袍男子	-11.3845
面带笑容	-11.3845
▁下面的时间	-11.3845
发现了什么	-11.3846
无碍	-11.3846
破界	-11.3847
天际	-11.3848
禁制波动	-11.3848
诱人	-11.3849
断裂	-11.3849
跃	-11.385
两柄	-11.385
之恩	-11.3851
魔爪	-11.3852
风雪	-11.3852
外泄	-11.3852
数寸长的	-11.3853
黑色狼首	-11.3853
巨柱	-11.3853
做梦	-11.3854
摧毁	-11.3854
一划	-11.3855
问你	-11.3856
例外	-11.3856
巨盾	-11.3857
靠山	-11.3857
根本来不及	-11.3859
黑暗中	-11.3861
殿门外	-11.3861
镶嵌着	-11.3862
血罩	-11.3862
有心人	-11.3862
修炼大成	-11.3863
长鸣	-11.3864
青蛟	-11.3864
几丝	-11.3864
中狂涌而出	-11.3869
众弟子	-11.387
确	-11.3872
魔虫	-11.3873
破空之声	-11.3875
问话	-11.3876
如此之久	-11.3876
划分	-11.3876
收服	-11.3877
带来了	-11.3878
闪动不定	-11.388
▁此刻他	-11.388
狼兽	-11.3881
很满意	-11.3881
这才发现	-11.3882
我们走吧	-11.3882
我听说	-11.3883
二兽	-11.3886
轻轻一拍	-11.3889
金符	-11.389
悬浮不动	-11.3891
恭敬异常	-11.3894
攻击下	-11.3895
请进	-11.3896
回身	-11.3896
凶光一闪	-11.3905
可能会	-11.3906
给在下	-11.3907
惊天动地的	-11.3908
拒绝了	-11.3909
熄灭	-11.3914
皇城	-11.3919
问起了	-11.3921
一股无形	-11.3927
眉头一皱的说道	-11.3927
这种东西	-11.3929
与此	-11.3929
一下失声起来	-11.3935
小宗门	-11.3935
五颜六色	-11.3935
一见到	-11.3936
一看就知	-11.3939
珍稀异常	-11.3944
就放心了	-11.395
没兴趣	-11.3951
一声娇叱	-11.3955
丝毫没	-11.3958
拦	-11.3961
黑光闪动	-11.3963
在了地上	-11.3969
低低	-11.3971
产生了	-11.3971
上界	-11.3972
并不多	-11.3973
凭空现出	-11.3973
召	-11.3973
血海	-11.3974
诡异之极	-11.3974
一道红光	-11.3979
威能之大	-11.398
恐怕会	-11.3981
人人都	-11.3985
冲进了	-11.3987
这四人	-11.399
此种情形	-11.3994
此方法	-11.3994
空荡荡	-11.3996
这副	-11.3999
一个玉盒	-11.4002
之极的样子	-11.4002
突然一张口	-11.4005
何事	-11.4007
其他人都	-11.4008
不理	-11.4008
一只袖子	-11.401
一股青霞	-11.4015
无数根	-11.4017
必须先	-11.402
混入	-11.4022
化为两道	-11.4022
无法发现	-11.4023
半个月	-11.4026
合体境界	-11.4027
乘	-11.403
集	-11.4031
真没想到	-11.4035
不知对方	-11.4036
只是一个闪动	-11.4036
二三十丈	-11.4038
有什么不妥	-11.4038
雷遁	-11.4039
得罪了	-11.4041
药物	-11.4047
化身为	-11.4048
元道友	-11.4048
深浅	-11.4048
轻轻一笑	-11.4049
巨大光球	-11.405
击溃	-11.4052
击中了	-11.4052
也绝不	-11.4053
接过了	-11.4053
肌肉	-11.4055
苗	-11.4057
银甲	-11.4057
踪	-11.4058
绪	-11.4061
逊	-11.4062
丝毫不停	-11.4062
御	-11.4063
割	-11.4065
菜	-11.4066
奋	-11.4066
此符箓	-11.4066
轻咳一声	-11.4066
空间风暴	-11.4066
额上	-11.4066
碧灵岛	-11.4066
车老妖	-11.4066
天壤之别	-11.4066
禀告	-11.4066
鬼罗幡	-11.4066
万骨真人	-11.4066
狡诈	-11.4066
双手抱臂	-11.4066
腥臭	-11.4066
炸	-11.4066
喉	-11.4066
坑坑洼洼	-11.4066
准确无误的	-11.4066
少之又少	-11.4066
双目微闭	-11.4066
万妖幡	-11.4066
寒其子	-11.4066
扁	-11.4066
驱逐	-11.4067
抗衡	-11.4067
戏耍	-11.4067
沙哑	-11.4067
驻扎	-11.4067
奇渊岛	-11.4067
舍不得	-11.4067
面色微变	-11.4068
灵泉	-11.4068
天澜兽	-11.4068
异议	-11.4068
人面蛟	-11.4068
口金色小剑	-11.4068
罢手	-11.4068
自语了一句	-11.4068
摄入	-11.4068
说着说着	-11.4068
本侯	-11.4069
失效	-11.4069
抛给了	-11.4069
法轮	-11.4069
越京	-11.4069
徒儿	-11.4069
贵客	-11.407
灰丝	-11.407
可真是	-11.407
黑幽幽	-11.4071
身亡	-11.4071
重复	-11.4071
心中暗自	-11.4071
根部	-11.4071
爪影	-11.4072
百余丈高的	-11.4072
丹田处	-11.4073
人族小子	-11.4074
巨石上	-11.4074
冰雪	-11.4074
寄希望	-11.4076
传了过来	-11.4076
无效	-11.4076
怪蛇	-11.4076
推算	-11.4079
打造	-11.4079
传言	-11.4079
安置	-11.4079
在修炼上	-11.408
用不上	-11.4083
火蟒	-11.4083
功力	-11.4083
恭敬的回道	-11.4085
不置可否的说道	-11.4085
微红	-11.4086
怎么办	-11.4086
早年	-11.4087
消退	-11.4089
一搏	-11.409
如何知道	-11.4091
疑惑之色	-11.4092
里面隐隐有	-11.4092
此景	-11.4093
念动	-11.4094
若有所思的说道	-11.4096
生命	-11.4098
后患	-11.4099
一偏	-11.41
有几分把握	-11.4103
青白电弧	-11.4106
多长时间	-11.4107
竟隐隐	-11.4108
化成了	-11.4112
倒出	-11.4114
包裹中	-11.4114
眼看就要	-11.4115
屋子中	-11.4115
保存	-11.4116
根本未	-11.4116
誓言	-11.4116
道友放心	-11.4117
七名	-11.4117
进阶后期	-11.4118
才有可能	-11.4119
若是肯	-11.412
看了两眼	-11.4121
两名修士	-11.4122
数丈高的	-11.4122
金光闪闪	-11.4125
递给了韩立	-11.4127
弄错	-11.413
成了一团	-11.4131
到了此时	-11.414
同时发出	-11.414
斩在了	-11.414
水平	-11.4142
落空	-11.4143
如此之多	-11.4144
体会	-11.4146
红光中	-11.4148
轮流	-11.4151
不及多想	-11.4155
见识一下	-11.4155
毫不迟疑	-11.4155
一道粗大	-11.4155
绝对无法	-11.4157
正好将	-11.416
小塔	-11.4168
合一	-11.4168
光头	-11.4171
巨大漩涡	-11.4172
此法器	-11.4172
宫殿中	-11.4172
裂开	-11.4173
忽然神色一动	-11.4174
石人	-11.4174
不太相信	-11.4175
也大感	-11.4175
一转后	-11.4177
好感	-11.4177
巨吼	-11.4179
一道法诀打	-11.418
动也不动	-11.4181
灵族人	-11.4182
借此	-11.4189
层次	-11.419
三枚	-11.4193
逼得	-11.4195
元婴期老怪	-11.4195
脸庞上	-11.42
兄长	-11.4206
韩立笑了一笑	-11.4208
何人	-11.421
邪门	-11.421
把自己	-11.4212
七十二口	-11.4216
一个翻滚	-11.4217
目光落在了	-11.4218
翻转	-11.422
是否真能	-11.4224
不一样	-11.4225
这一击	-11.4229
至今还	-11.4234
此蛟	-11.4239
不禁露出	-11.424
把它	-11.424
将玉盒	-11.4242
都不敢	-11.4242
大些的	-11.4244
没说	-11.4244
太高	-11.4246
竟化为了	-11.425
失败了	-11.425
凝重起来	-11.4251
追赶	-11.4252
只留下了	-11.4254
悔	-11.4255
脸色不禁	-11.4255
等级	-11.426
话一出口	-11.426
证实	-11.4272
竖	-11.4275
觉得如何	-11.4275
另外一个	-11.4275
实在无法	-11.4277
蟹	-11.4279
染	-11.4279
目中蓝芒	-11.428
赔	-11.4283
看不清	-11.4287
内的一切	-11.4287
化神中期	-11.4287
蓝冰	-11.4288
三叔	-11.429
爷	-11.4291
纱	-11.4292
丹田	-11.4294
援	-11.4294
招来	-11.4296
韩立淡淡一笑	-11.4296
兰	-11.4297
滋	-11.4298
治	-11.4298
覆	-11.4298
或多或少	-11.4299
瞳	-11.4299
一只乌黑	-11.4299
不计其数	-11.4299
描述	-11.4299
无垢老祖	-11.4299
靴	-11.4299
牢牢	-11.4299
魂飞天外	-11.4299
默不作声	-11.4299
业	-11.4299
阴芝马	-11.4299
客卿长老	-11.4299
小老儿	-11.4299
轻举妄动	-11.4299
风驰电掣	-11.4299
征兆	-11.4299
五子魔	-11.4299
心中大凛	-11.4299
数以万计	-11.4299
绣	-11.4299
忽隐忽现	-11.4299
不费吹灰之力	-11.4299
规律	-11.4299
捻	-11.4299
摇头晃脑	-11.4299
标注	-11.4299
眉头紧锁	-11.4299
项	-11.4299
各种各样的	-11.4299
震慑	-11.4299
匹练	-11.4299
寸寸的碎裂而开	-11.4299
四散真人	-11.4299
吴姓老者	-11.43
▁无奈之下	-11.43
干扰	-11.43
的水准	-11.43
筑基初期	-11.43
狂风大作	-11.43
寿命	-11.43
精钢	-11.43
老朽	-11.43
解释了两句	-11.43
父亲	-11.43
神色阴沉	-11.4301
怎么一回事	-11.4301
惧色	-11.4301
出了何事	-11.4302
弥合	-11.4302
此击	-11.4302
▁说完此话	-11.4302
刀芒	-11.4302
久闻	-11.4302
恶蛟	-11.4303
苍老声音	-11.4303
沟通	-11.4303
留守	-11.4304
开采	-11.4305
一个个大小不一的	-11.4305
那杆	-11.4306
方夫人	-11.4306
之色闪过	-11.4306
望了一眼后	-11.4307
脸皮	-11.4307
追问下去	-11.4307
有信心	-11.4308
敖啸前辈	-11.4309
狂喜之色	-11.4309
仔细观察	-11.431
看的一清二楚	-11.431
圣兽	-11.431
金色拳影	-11.431
飞了出去	-11.431
光华一闪	-11.4312
发生的一切	-11.4312
不加思索下	-11.4313
迎接	-11.4314
韩立双目微眯	-11.4314
此族	-11.4314
让人听了	-11.4315
六足等人	-11.4316
火候	-11.4316
死伤	-11.4318
人面虫	-11.4319
对象	-11.432
表现出	-11.432
不禁面面相觑	-11.4321
胸有成竹的说道	-11.4321
在这期间	-11.4322
数字	-11.4324
没有谁	-11.4325
灭绝	-11.4325
掠过	-11.4325
血色符文	-11.4325
来参加	-11.4326
面容上	-11.4326
一伙	-11.4326
黑红色	-11.4326
万一真	-11.4328
黑色光幕	-11.4328
法阵中心处	-11.433
塔中	-11.4331
语气	-11.4331
花瓣	-11.4333
苦笑一声的说道	-11.4335
劲风	-11.4335
银剑	-11.4335
关头	-11.4337
无数纤细	-11.4338
居多	-11.4339
▁韩立只觉	-11.434
这老魔	-11.4344
灵兽袋中	-11.4344
直径丈许	-11.4345
黑绿色	-11.4345
这些灵虫	-11.4345
将此兽	-11.4347
整整	-11.4349
冰煞	-11.435
灵骨	-11.435
伤口	-11.4351
鬼灵门修士	-11.4352
不能让	-11.4354
乱响	-11.4355
眼前一亮	-11.4355
两处	-11.4357
厉道友	-11.4363
女儿	-11.4364
这些年来	-11.437
深吸一口气后	-11.437
好似	-11.437
神通不小	-11.437
多加小心	-11.437
丢掉	-11.437
一礼后	-11.4374
很明显	-11.4375
要小心	-11.4375
抹去	-11.4376
▁韩立目睹此景	-11.4377
真像	-11.4381
灵树	-11.4383
抵住了	-11.4383
其中一个	-11.4386
色彩	-11.4387
赤金	-11.4388
给他们	-11.439
你不会	-11.4391
事物	-11.4391
往日	-11.4392
有问题	-11.4393
并未再	-11.4397
影族	-11.44
此毒	-11.44
数团	-11.4402
自得	-11.4402
荡然无存了	-11.4404
甚至可以	-11.4404
出名的	-11.4404
动了几下	-11.4406
摆手	-11.4412
大半日	-11.4412
心中一阵	-11.4413
小声	-11.4414
就感到	-11.4415
前辈放心	-11.4417
一个三头六臂的	-11.442
暗自思量	-11.4422
圆脸	-11.4425
上阶	-11.4427
终于到了	-11.4429
其他势力	-11.4429
修炼的是	-11.4429
低笑	-11.4431
机关	-11.4431
荡然无存	-11.4431
方一现身	-11.4434
脸色难看	-11.4435
一件宝物	-11.4435
数声	-11.4436
禁制住	-11.4438
控制住	-11.4442
山门	-11.4446
微闪	-11.4447
三次	-11.4447
有些不耐	-11.4448
后者	-11.4451
直视	-11.4453
过问	-11.4454
一开口	-11.4454
哪能	-11.4455
应该就是	-11.4456
数个时辰后	-11.4457
纷纷化为	-11.4457
一卷而下	-11.4462
击毁	-11.4463
出没	-11.4464
重大	-11.4465
使出	-11.4465
无影无踪了	-11.4466
找一处	-11.4468
小心一些	-11.4469
重新化为了	-11.447
就化为一道青虹	-11.4474
停止	-11.4476
看出来了	-11.448
眉梢	-11.4482
美玉	-11.4484
几根	-11.45
藏有	-11.4502
突然传来	-11.4503
射向	-11.4503
胖	-11.4505
一丝异样	-11.4506
仔细检查	-11.4507
拇指	-11.4509
大生	-11.4509
低级	-11.451
这一幕	-11.451
任何东西	-11.4511
立刻就会	-11.4511
凝聚出	-11.4512
提着	-11.4514
毫无表情	-11.4515
台阶	-11.4516
神效	-11.4518
闭目养神	-11.4519
合拢	-11.452
位于	-11.4521
斤	-11.4522
一热	-11.4523
无奈的说道	-11.4524
三头六臂	-11.4525
奢	-11.4526
拿到了	-11.4528
毁掉了	-11.4528
池中	-11.4531
车轮般	-11.4531
扰	-11.4533
古魔界	-11.4534
虑	-11.4536
寂静	-11.4536
捉	-11.4536
奖	-11.4537
宅	-11.4537
杜	-11.4537
惊蛟会	-11.4537
见多识广	-11.4537
极西之地	-11.4537
花篮	-11.4537
冯三娘	-11.4537
三全道人	-11.4537
禁空禁制	-11.4537
润	-11.4537
鸠	-11.4537
十之八九	-11.4537
协议	-11.4537
启禀	-11.4537
苦竹老人	-11.4537
几个呼吸间工夫	-11.4537
春黎剑阵	-11.4537
序	-11.4537
海大少和器灵子	-11.4537
一声闷哼	-11.4537
万万没有想到	-11.4537
一声厉喝	-11.4537
恋	-11.4537
汇集	-11.4537
狼牙棒	-11.4537
乌罗人	-11.4537
逐渐	-11.4537
束手待毙	-11.4537
罗烟步	-11.4537
一小块	-11.4537
彦姓老者	-11.4537
七大派	-11.4537
一口回绝	-11.4537
污	-11.4537
转念一想	-11.4537
吕天蒙	-11.4537
拇指粗细	-11.4537
扑鼻	-11.4537
拐弯	-11.4538
连连摇头	-11.4538
妙鹤真人	-11.4538
一闪即过	-11.4538
迎向	-11.4538
难得一见的	-11.4538
酒杯	-11.4538
俊美	-11.4538
抱怨	-11.4538
混杂	-11.4538
雕刻	-11.4538
南陇兄	-11.4538
师娘	-11.4538
老僧	-11.4538
▁半日后	-11.4538
摇晃	-11.4538
红拂	-11.4538
细节	-11.4538
毫无疑问	-11.4539
执行	-11.4539
血影遁	-11.4539
倒塌	-11.4539
我等几人	-11.454
交付	-11.454
十几丈高的	-11.454
披风	-11.4541
老弟	-11.4541
整理	-11.4541
异界	-11.4541
清鸣声	-11.4541
愈发	-11.4541
族之人	-11.4542
惊容	-11.4542
迷魂	-11.4542
只来及	-11.4542
符号	-11.4543
长翎	-11.4543
明言	-11.4543
一步步	-11.4544
形势	-11.4544
释放出	-11.4544
接到了	-11.4544
激战	-11.4544
矮子	-11.4545
明亮	-11.4545
如此之快	-11.4546
神念一动	-11.4546
数遍	-11.4546
还未来及	-11.4547
土属性	-11.4548
赤色	-11.4548
对我来说	-11.4548
帮派	-11.4549
无故	-11.4549
相救	-11.455
驻守	-11.4551
一个照面	-11.4553
大鸟	-11.4553
现如今	-11.4553
玉书	-11.4554
笑嘻嘻的说道	-11.4555
骑着	-11.4555
神秘小瓶	-11.4556
情分	-11.4556
面面相觑起来	-11.4557
阴阴	-11.4557
淡金	-11.4558
金老怪	-11.4558
也曾经	-11.4559
震天	-11.456
还望前辈	-11.4561
为了怕	-11.4561
现出了身形	-11.4562
外表	-11.4562
奇快	-11.4563
望了过来	-11.4564
娇笑	-11.4564
火龙	-11.4566
全身法力	-11.4567
滚滚而出	-11.4567
到底是何	-11.4568
有些可惜	-11.457
之声大作	-11.4571
筑基修士	-11.4571
风情	-11.4571
无端	-11.4572
一声巨响后	-11.4572
口吐一个	-11.4577
吓人	-11.4577
竟凭空	-11.4577
▁一想到	-11.4578
数百年时间	-11.4584
窜出	-11.4584
随便找	-11.4586
明智	-11.4586
比原先	-11.4586
一些特殊	-11.4589
催动下	-11.459
几口	-11.4591
不禁面面相觑起来	-11.4593
镇定异常	-11.4596
轻轻一抖	-11.4597
▁韩立心中一动	-11.4597
黄袍老者	-11.4598
想先	-11.4598
手中多出	-11.4601
想要的东西	-11.4606
返回灵界	-11.4608
看看吧	-11.4609
斩出	-11.4611
神念强大	-11.4614
柔和	-11.4615
声音传来	-11.4616
三具	-11.4616
不提	-11.4617
▁韩立目光一闪	-11.4618
金色鳞片	-11.4619
这说明	-11.4622
其余几人	-11.4622
飞向	-11.4625
七人	-11.4625
头一次	-11.4626
书写	-11.4628
聚集在	-11.4628
约束	-11.4633
城墙上	-11.4633
出于	-11.4634
没有再说什么	-11.4634
这几个	-11.4635
带头	-11.4636
大宗门	-11.4639
左右一分	-11.4641
有五六	-11.4642
这根	-11.4643
洞府外	-11.4643
耽误了	-11.4643
竟然还有	-11.4647
▁韩立一怔	-11.4649
这位韩前辈	-11.4649
解释起来	-11.465
飞向了	-11.4654
最前面	-11.4655
沉默了一会儿	-11.4657
附近海域	-11.4658
太少	-11.4663
钟鸣	-11.4665
绕过	-11.4665
一缕神念	-11.4671
倒不如	-11.4673
动手吧	-11.4675
另一种	-11.4675
三块	-11.468
肩头上	-11.4681
罩下	-11.4682
尺许高	-11.4683
一怔之下	-11.4683
在岛上	-11.4684
一股巨力	-11.4685
整个身躯	-11.4685
斩向	-11.4686
我家	-11.4691
什么麻烦	-11.4692
魔道修士	-11.4694
此条件	-11.4696
难看起来	-11.4696
也该	-11.4699
哪还有	-11.47
整个人就	-11.4703
此生	-11.4704
年月	-11.4704
是哪位	-11.4704
此老	-11.4704
绿灵族	-11.4705
这三名	-11.4706
接住	-11.4709
人影一闪	-11.4709
我们燕家	-11.4711
不同一般	-11.4712
这批	-11.4713
妖鬼	-11.4713
身躯一个模糊	-11.4714
吞下	-11.4715
围住	-11.4719
疯	-11.4722
太低	-11.4732
韩立一听这话	-11.4733
凭空多出	-11.4733
无一人	-11.4734
不知多少年	-11.4739
附近地面	-11.4744
瓶丹药	-11.4746
一丝丝	-11.4748
打量了一下	-11.475
低空	-11.475
此点	-11.4751
侍	-11.4753
净	-11.4754
搏	-11.4756
群修	-11.4759
听了此言	-11.476
了许久	-11.4764
危险之极	-11.4765
概	-11.4765
天南修仙界	-11.4766
这般惊人	-11.4768
一团金光	-11.4768
就这片刻	-11.4768
塞	-11.4771
紧贴	-11.4774
黑衣	-11.4775
触动了	-11.4778
古修士	-11.4779
匿	-11.4779
育	-11.478
蔓延	-11.478
削	-11.478
奸	-11.478
仗	-11.478
征	-11.4781
俏	-11.4781
不怀好意	-11.4781
天澜草原	-11.4781
祝音子	-11.4781
鼎鼎大名	-11.4781
大礼参拜	-11.4781
猪	-11.4781
魔源海	-11.4781
评	-11.4781
说来听听	-11.4781
四平帮	-11.4781
华西仙子	-11.4781
顶级法器	-11.4781
丝毫异色没有	-11.4781
翘	-11.4781
欣慰	-11.4781
清瘦老者	-11.4781
法体双修	-11.4781
七零八落	-11.4781
快似闪电	-11.4781
星海	-11.4781
猫	-11.4781
呆滞	-11.4781
王长青	-11.4781
青翼族	-11.4781
扫荡一空	-11.4781
慕姓女子	-11.4781
干瘪	-11.4781
舍弃	-11.4781
增添	-11.4781
防范	-11.4781
争执	-11.4781
引诱	-11.4782
五光族	-11.4782
削弱	-11.4782
略微一顿	-11.4782
切割	-11.4782
说完这些话	-11.4782
依旧	-11.4782
安危	-11.4782
青纹道士	-11.4782
七级	-11.4782
激射而至	-11.4782
竞拍	-11.4782
逃窜	-11.4782
相邻	-11.4782
试图	-11.4783
恭送	-11.4783
威严	-11.4783
赤芒	-11.4783
尚存	-11.4783
波纹	-11.4783
布满了	-11.4783
不济	-11.4784
货物	-11.4784
徒然	-11.4784
拍卖大会	-11.4784
颤动	-11.4784
柳仙子	-11.4784
上古封印	-11.4785
隐居	-11.4785
晶芒	-11.4785
运行	-11.4785
西边	-11.4786
第二次	-11.4787
舞动	-11.4788
早有准备	-11.4788
解毒	-11.4789
一飞而去	-11.4789
富兄	-11.4789
已经开始	-11.4789
孙火	-11.4791
敌意	-11.4792
一抛而出	-11.4792
大骂	-11.4792
光莲	-11.4793
血虹	-11.4793
分念	-11.4793
办事	-11.4793
绿毛	-11.4794
头戴	-11.4794
黑线	-11.4794
一叙	-11.4794
赤红火焰	-11.4795
如实	-11.4795
笑吟吟的说道	-11.4795
飘飘	-11.4796
巨幡	-11.4796
先把	-11.4797
丝毫不变	-11.4797
两波	-11.4799
随风	-11.4799
二楼	-11.48
这般容易	-11.4801
相帮	-11.4801
肃然的说道	-11.4802
声势惊人	-11.4802
极力	-11.4802
半尺长	-11.4804
莫前辈	-11.4804
状东西	-11.4804
殿门处	-11.4808
乃是	-11.4808
双眉一挑	-11.4811
没有回答	-11.4813
落座	-11.4817
心知	-11.4817
根本无法抵挡	-11.4818
往储物袋中一	-11.4819
面色凝重	-11.4819
并飞快	-11.4819
第二天	-11.4825
不需要	-11.4826
七个	-11.4828
露出一副	-11.4828
一幅	-11.4829
金色光球	-11.483
有兴趣	-11.4832
迅速缩小	-11.4834
了好久	-11.4835
不适	-11.4835
飞灵族人	-11.4835
毒虫	-11.4836
不动起来	-11.4841
玉灵	-11.4845
飞至了	-11.4845
最低	-11.4846
场大战	-11.4851
到现在还	-11.4851
二百年	-11.4852
成一团	-11.4854
竟纷纷	-11.4857
陌生人	-11.4858
并且越来越	-11.4859
大网	-11.4861
四头	-11.4865
一声长鸣	-11.4865
八十	-11.4872
有些道理	-11.4872
亮出	-11.4876
话语里	-11.4877
神色一凝	-11.4879
送到了	-11.4879
却是一名	-11.488
恐怖之极	-11.4881
外族人	-11.4883
个个都	-11.4884
所得	-11.4886
又问道	-11.4886
听过	-11.4889
上一拍	-11.4891
晃动不已	-11.4891
联手下	-11.49
露出了满意之色	-11.4901
喷射	-11.4904
青袍老者	-11.4908
凤鸣	-11.4914
斩到了	-11.4919
▁如今他	-11.4922
一记	-11.4924
满口答应	-11.4927
一落而去	-11.493
韩立听了这话	-11.493
只能勉强	-11.4933
你们两个	-11.4933
一捞	-11.4934
▁半晌之后	-11.4937
他可不想	-11.4942
脸上表情	-11.4943
狂笑	-11.4944
可实在	-11.4949
单足	-11.4951
五色光柱	-11.4952
指着	-11.4953
叶家修士	-11.4953
也是一名	-11.4956
双袖	-11.4961
进阶化神	-11.4965
就可将	-11.497
显然对	-11.4972
能有什么	-11.4977
夜叉	-11.498
青色小鼎	-11.4983
打量起	-11.4984
可有什么	-11.4987
棺	-11.4991
其他三人	-11.4993
就立即	-11.4996
御器飞	-11.4996
本身就是	-11.4997
黄雾	-11.4999
桌子上	-11.5
整座法阵	-11.5001
在座	-11.5006
好笑	-11.5009
绿丝	-11.5009
毫不奇怪	-11.5013
一声惊天动地的	-11.5013
充斥	-11.5019
大典	-11.5025
站稳	-11.5026
瞬	-11.5027
扮	-11.5027
构	-11.5027
不值一提	-11.5028
刘	-11.5029
亩	-11.5029
拒	-11.503
豆	-11.503
酬	-11.503
访	-11.503
千难万难	-11.503
迁	-11.5031
镖	-11.5031
透彻	-11.5031
婚	-11.5031
五龙铡	-11.5031
接二连三	-11.5031
墨灵圣舟	-11.5031
赴	-11.5031
了如指掌	-11.5031
白日做梦	-11.5031
紫罗天火	-11.5031
鸣魂珠	-11.5031
一无所获	-11.5031
哑然一笑	-11.5031
拆	-11.5031
半尺来长	-11.5031
银袍僧人	-11.5031
回过头来	-11.5031
子母峰	-11.5031
巡查	-11.5031
怔了一怔	-11.5031
慧眼如炬	-11.5031
紫言鼎	-11.5031
哗	-11.5031
拟	-11.5031
闭口不言	-11.5031
零	-11.5031
落荒而逃	-11.5031
颠倒五行阵	-11.5031
天魔宗	-11.5031
玄天斩灵剑	-11.5031
情急之下	-11.5031
躯壳	-11.5031
玄天灵域	-11.5031
自言自语	-11.5031
反驳	-11.5031
浇	-11.5031
统领	-11.5031
深奥	-11.5031
试验	-11.5031
瞬息	-11.5031
淹没在了其中	-11.5032
幸免	-11.5032
流星	-11.5032
一斩两截	-11.5032
一扫而空	-11.5032
包裹进了其中	-11.5032
触怒	-11.5033
亩许大的	-11.5033
方脸修士	-11.5033
失态	-11.5033
一不小心	-11.5033
联合	-11.5033
皱了下眉头	-11.5033
买卖	-11.5034
白袍少年	-11.5034
怒容	-11.5034
目睹这一切	-11.5034
撕裂而开	-11.5035
难掩	-11.5035
吕师兄	-11.5035
虚灵丹	-11.5035
望向韩立的目光	-11.5036
请教	-11.5036
一口答应了下来	-11.5036
金银符文	-11.5036
另一方面	-11.5036
脸上笑容	-11.5037
渐渐远去	-11.5037
秘宝	-11.5039
低阶修仙者	-11.5039
房间	-11.504
灵器	-11.504
增长	-11.504
打滚	-11.5041
许云	-11.5041
清香	-11.5041
落脚	-11.5042
青光一敛	-11.5042
馨王	-11.5043
书信	-11.5043
金色虫云	-11.5045
抢先一步	-11.5045
大叫一声	-11.5046
挡在了外面	-11.5047
银文	-11.5047
射入	-11.5048
闻名	-11.5048
飞行法器	-11.5049
艳丽女子	-11.5049
赞同道	-11.5049
闭目养神起来	-11.505
诸人	-11.5051
瞒	-11.5051
喊道	-11.5051
让人看了	-11.5054
七级妖兽	-11.5054
还能有	-11.5055
巨剑门	-11.5057
没有直接回答	-11.5058
静坐	-11.5058
长约	-11.5059
及身	-11.506
既然前辈	-11.5062
学会	-11.5063
此刻却	-11.5066
十几头	-11.5068
高低	-11.5068
不慌	-11.5068
说话之人	-11.507
全力催动	-11.507
袖袍冲	-11.507
拍卖会上	-11.5073
心中大怒	-11.5073
黑色电弧	-11.5075
一催下	-11.5077
法诀一催下	-11.5077
光剑	-11.5077
行为	-11.5078
大山	-11.5078
吐出了	-11.5081
挤出	-11.5083
一收而回	-11.5083
发生的事情	-11.5083
之命	-11.5084
弱小	-11.5091
青衫老者	-11.5091
灵云	-11.5091
阴沉下来	-11.5092
林道友	-11.5093
即使以	-11.5097
辨认出	-11.5098
荒岛	-11.5098
三魔	-11.5103
几样东西	-11.5103
也不一定	-11.5104
脸色变得	-11.5105
有这种事情	-11.5106
十道	-11.5109
青气	-11.5111
一干修士	-11.5113
反被	-11.5114
忽然开口	-11.5114
倒在地	-11.5115
出现在那里	-11.5115
灵水	-11.5117
这样啊	-11.5119
父母	-11.5121
上路吧	-11.5123
有些关系	-11.5123
两样	-11.5124
若真有	-11.5124
兴奋异常	-11.5124
老老实实	-11.5126
飘去	-11.5128
重新化为	-11.5129
笑容一敛	-11.5129
这门	-11.5129
冲老者	-11.5133
拜在	-11.5137
往腰间一	-11.5137
逼出	-11.5141
买下	-11.5143
飞遁着	-11.5145
慕兰族	-11.5148
说了出来	-11.5148
沉吟起来	-11.5156
青色电弧	-11.5161
力压	-11.5162
现出一名	-11.5165
起见	-11.5166
细说	-11.5172
一股浓浓的	-11.5173
这些魔兽	-11.5175
在韩立身上	-11.5176
台下	-11.5178
变小	-11.5179
盯住	-11.5185
契约	-11.5186
略感	-11.5188
另一只手掌	-11.519
一旦被	-11.5196
金色大手	-11.5197
怒吼	-11.5197
一冷	-11.5198
原本有些	-11.5207
持有	-11.521
不答应	-11.5215
器灵族	-11.5215
冲入	-11.5217
懒洋洋	-11.5218
不舒服	-11.522
韩立轻吐了一口气	-11.5221
筒	-11.5225
般存在	-11.5225
抓到了	-11.5227
龙族	-11.523
一座山峰	-11.5231
出手的话	-11.5232
做完	-11.5232
此酒	-11.5233
趣	-11.5233
有两个	-11.5234
露出了里面	-11.5238
暇	-11.524
数截	-11.5241
锁	-11.5242
有的则	-11.5246
巨型法阵	-11.5251
这些弟子	-11.5255
近百	-11.5257
族内	-11.5257
离体	-11.5257
竟就此	-11.526
忽然一笑	-11.5263
应道	-11.5265
在了半空中	-11.5266
眼也不眨	-11.5268
绿袍	-11.5269
各色灵光	-11.5272
斩去	-11.5274
多看	-11.5275
中一冲而出	-11.5277
灵兽环	-11.5278
蛾	-11.528
粗大金弧	-11.5283
那三名	-11.5284
冥河	-11.5286
闵	-11.5287
雅	-11.5287
歇	-11.5287
麟	-11.5287
雇	-11.5287
帕	-11.5287
天云十三族	-11.5287
涅盘圣体	-11.5287
数不胜数	-11.5287
天阙堡	-11.5287
燕翎堡	-11.5287
黛眉一皱	-11.5287
太阴真火	-11.5287
桑	-11.5287
黄粱石灵	-11.5287
黑黝黝的	-11.5287
不及防之下	-11.5287
孟	-11.5287
月光石	-11.5287
婴鲤兽	-11.5287
话锋一转	-11.5287
瑕	-11.5287
腻	-11.5287
天澜圣殿	-11.5287
束手无策	-11.5287
感激不尽	-11.5287
嘶哑	-11.5287
司	-11.5288
骨骸	-11.5288
玄天仙藤	-11.5288
牛首小兽	-11.5288
愤怒	-11.5288
抛弃	-11.5288
狞色	-11.5288
弯曲	-11.5288
见笑了	-11.5288
追究	-11.5288
剧毒	-11.5288
衰弱	-11.5288
金丝蚕	-11.5288
强者之战	-11.5289
独特	-11.5289
各式	-11.5289
问候	-11.5289
旭天	-11.5289
品质	-11.5289
兔子	-11.5289
白兔	-11.5289
用意	-11.5289
体内灵力	-11.5289
现出了原形	-11.529
轻纱	-11.529
镇守	-11.529
电蛇	-11.529
肢体	-11.529
先是一呆	-11.529
抬首望了望	-11.5291
圣阶魔兽	-11.5291
角落里	-11.5291
堪比	-11.5292
沉默了片刻	-11.5292
形容	-11.5292
混沌万灵榜	-11.5292
统	-11.5293
好久	-11.5293
云姓老者	-11.5293
充分	-11.5294
难以相信	-11.5294
阵法师	-11.5294
发展	-11.5295
青光闪闪	-11.5295
一盏茶的功夫后	-11.5296
奇毒	-11.5297
正是那位	-11.5298
厉色	-11.5298
龙首	-11.5298
花容	-11.5298
弱点	-11.5299
神色微变	-11.5299
大出意外	-11.5301
决然	-11.5301
巨震	-11.5301
一名普通	-11.5302
失神	-11.5302
生硬	-11.5303
之声大响	-11.5303
远远望去	-11.5304
黄袍修士	-11.5304
惊雷	-11.5305
变得如此	-11.5306
蓝衣人	-11.5307
手印	-11.5307
叶子	-11.5307
簇拥着	-11.5308
光刃	-11.531
天卫	-11.5311
姓名	-11.5313
平静的回道	-11.5313
不但可以	-11.5315
实在不是	-11.5315
画卷	-11.5316
王长老	-11.5316
刮起	-11.5317
可疑	-11.5318
有几名	-11.5319
一团银光	-11.5319
动不已	-11.532
只知道	-11.532
中阶灵石	-11.532
宗师	-11.5322
大力	-11.5322
奇光	-11.5322
密室内	-11.5324
这点时间	-11.5326
荒地	-11.5327
轻笑一声的说道	-11.5329
族群	-11.533
苍	-11.5331
讨好	-11.5334
蓦然多出了	-11.5336
扑到	-11.5336
如水	-11.5337
正想再	-11.5338
殷红	-11.5338
独角老者	-11.5338
化神初期	-11.534
遁光一闪	-11.5341
深吸了一口气后	-11.5342
有些迟了	-11.5343
尽心	-11.5343
就消失在了	-11.5343
妖风	-11.5345
遮住	-11.5345
跌	-11.5347
看似普通	-11.5349
雷属性	-11.535
无法轻易	-11.535
火花	-11.5354
欺瞒	-11.5356
困在了其中	-11.5356
助你	-11.5357
才得以	-11.5357
解释的说道	-11.5363
焦黑	-11.5364
韩立不置可否的	-11.5365
晶族	-11.5369
眼中闪过一丝	-11.5372
能感应到	-11.5372
一丝笑容	-11.5373
化为一口	-11.5374
一下失声出口	-11.5375
黑芒一闪	-11.5377
存放	-11.5379
级存在	-11.5384
模糊异常	-11.5385
一躬身	-11.539
血液	-11.5391
一经	-11.54
地图上	-11.5403
蓦然多出	-11.5404
机关傀儡	-11.5408
变动	-11.5408
收为	-11.541
别想	-11.5412
飞离	-11.5412
一现身	-11.5413
迹象	-11.5415
员	-11.5419
得来的	-11.5427
继续修炼	-11.5428
平静的问道	-11.543
神色淡然	-11.5433
迟疑的说道	-11.5435
某片	-11.5437
青红	-11.5439
皱起	-11.544
这些符文	-11.5441
传来一阵	-11.5442
突破化神	-11.5449
有些怀疑	-11.5449
化为一道白光	-11.545
一代	-11.545
到了这里	-11.5452
时分	-11.5452
几个闪动下	-11.5453
肯定不是	-11.5454
不会错的	-11.5457
三四十丈	-11.5458
绿光城	-11.5459
陨落掉	-11.5463
焦虑之色	-11.5464
刺目光芒	-11.5464
之威	-11.5468
焦	-11.5469
飞快转动	-11.5469
抖	-11.5472
在其身后	-11.5478
可不想	-11.5478
心里一惊	-11.5478
十几颗	-11.5479
带到了	-11.5479
几个闪动	-11.5483
嫁给	-11.5483
马上就会	-11.5486
一界	-11.5489
吐道	-11.549
就出现在了手中	-11.5499
越来越多	-11.5506
布袋	-11.5506
歉意	-11.5512
每当	-11.5513
脸上现出了	-11.5515
在白光中	-11.5516
燃	-11.5519
愁	-11.5524
看不到	-11.5525
但就在这时	-11.5526
此女身上	-11.5527
爆响	-11.5527
做好了	-11.5528
露出了几分	-11.553
一刹那	-11.5531
也别想	-11.5531
凭空出现	-11.5532
六人	-11.5533
弧	-11.5536
来得及	-11.5539
丹火	-11.5541
躬	-11.5545
蒲团上	-11.5546
肚	-11.5547
拱	-11.5547
瓜	-11.5548
兼	-11.555
吾	-11.555
溪	-11.555
喘	-11.555
末	-11.555
毫不犹豫	-11.555
明目张胆	-11.555
嚼	-11.555
青易居士	-11.555
寡	-11.555
灭仙珠	-11.555
锣	-11.555
恭贺	-11.555
董	-11.555
捆	-11.555
眼珠微转	-11.555
叫出声来	-11.555
莫名其妙	-11.555
疲	-11.555
慕兰神师	-11.555
瞳孔微微一缩	-11.5551
贯	-11.5551
烛	-11.5551
灵眼之树	-11.5551
骇人听闻	-11.5551
东倒西歪	-11.5551
嘶嘶	-11.5551
往储物袋上一拍	-11.5551
随时都可能	-11.5551
无法奈何	-11.5551
卡	-11.5551
吻	-11.5551
瘦削汉子	-11.5551
皇清观	-11.5551
不复存在	-11.5551
证据	-11.5551
答复	-11.5551
无可奈何	-11.5551
救命之恩	-11.5551
迎仙宫	-11.5551
通禀	-11.5551
一个卷动	-11.5551
一眼就认出了	-11.5551
雪云狐	-11.5551
一吸而入	-11.5551
组织	-11.5551
心念转动	-11.5551
数亩大	-11.5551
胸口	-11.5552
结婴	-11.5552
异象	-11.5552
▁一个月后	-11.5552
衣钵	-11.5552
冰缝	-11.5553
碎裂而开	-11.5553
满不在乎	-11.5553
一把捞	-11.5553
惊叹	-11.5553
交织到了一起	-11.5553
韩师侄	-11.5554
在轰鸣声中	-11.5554
几步上前	-11.5554
硬闯	-11.5554
不客气了	-11.5554
放慢了	-11.5554
鲁兄	-11.5554
建立	-11.5554
黑熊	-11.5555
脱口而出	-11.5555
木架	-11.5555
刻意	-11.5556
除掉	-11.5556
雷纹	-11.5557
蓝袍妇人	-11.5557
寻宝	-11.5557
小厮	-11.5557
此果	-11.5558
有所行动	-11.5558
排列	-11.5559
独角青年	-11.5559
还是两说的事情	-11.5559
老实的回道	-11.556
抽取	-11.5561
雷遁术	-11.5561
指尖	-11.5562
犀利无比	-11.5562
白衣男子	-11.5562
惊变	-11.5563
全力一击	-11.5563
多达	-11.5564
进度	-11.5564
艳丽男子	-11.5564
一斩而出	-11.5565
两排	-11.5565
略加	-11.5565
五六十丈	-11.5566
成全	-11.5567
处置	-11.5567
大有希望	-11.5568
风属性	-11.5569
一名身材	-11.5569
阶梯	-11.557
我没记错	-11.557
直接迎向了	-11.557
其背后	-11.5571
交待	-11.5571
炼气期弟子	-11.5571
闪出	-11.5571
金色手掌	-11.5573
走掉	-11.5573
的大名	-11.5573
有几人	-11.5573
长叹了一口气	-11.5574
分散	-11.5576
但随着	-11.5577
不在意的说道	-11.5577
没事吧	-11.5578
诡异的出现在了	-11.5578
数十只	-11.5579
白费	-11.5579
向韩立这边	-11.558
绿光闪动	-11.5581
悄然无声	-11.5581
大惊之下	-11.5581
震惊之色	-11.5581
遮	-11.5582
本意	-11.5582
得意之色	-11.5582
愕然之色	-11.5583
较为	-11.5584
到如此地步	-11.5585
码头	-11.5585
大仇	-11.5587
打算用	-11.5589
从中狂涌而出	-11.5589
分配	-11.559
光盾	-11.5591
数千里	-11.5597
口中一声大喝	-11.5598
说些什么时	-11.5603
领地	-11.5603
城内	-11.5606
▁韩立听了此话	-11.5608
除了那些	-11.5609
千余	-11.5612
但最终还是	-11.5616
小型法阵	-11.5617
声不断	-11.5618
目瞪口呆起来	-11.5618
插着	-11.5621
舒服	-11.5621
狂闪几下后	-11.5623
金色巨剑	-11.5623
准时	-11.5623
如此短时间	-11.5627
陪着	-11.5632
所问	-11.5634
一名浑身	-11.5637
遥远	-11.5637
身死	-11.5638
就是为了	-11.564
其余修士	-11.5644
扩大	-11.5646
小镇	-11.5646
更快	-11.5659
这种方法	-11.5662
大门处	-11.5663
竟然敢	-11.5665
围在	-11.5666
到了此处	-11.5671
还必须	-11.5672
不会真	-11.5673
禁地中	-11.5676
从鼎中	-11.5676
岛主	-11.5677
请来	-11.5678
离他们	-11.5681
金舟	-11.5681
离此地	-11.5682
有几种	-11.5682
正是那名	-11.5689
火灵	-11.569
点头称是	-11.5691
拿走	-11.5692
倒不用	-11.5693
一闪的不见了踪影	-11.5693
抓出	-11.5693
向后倒射	-11.5697
建筑中	-11.5697
整个天南	-11.5699
那几只	-11.5699
下半身	-11.57
不知有多少	-11.5705
并不比	-11.5707
场面	-11.5709
电光一闪	-11.571
问出了	-11.5716
题	-11.5722
无法支撑	-11.5723
一只黑色	-11.5725
禁制大阵	-11.5726
何必如此	-11.5741
几近	-11.5742
听见	-11.5745
一摆	-11.5757
但表面上	-11.5757
石片	-11.5758
叫做	-11.5758
不理会	-11.576
锦衣	-11.5771
冰海	-11.5771
诸	-11.5771
狂催	-11.578
舒	-11.5781
闻言大喜	-11.5782
少见	-11.5785
无法瞒过	-11.5785
他们三人	-11.5786
满意之色	-11.5787
能拿出	-11.5793
数倍以上	-11.5795
席	-11.5797
胥	-11.5798
十余丈远	-11.5801
馨	-11.5807
夹杂	-11.5809
仿	-11.581
来势	-11.581
紧挨	-11.5811
溃	-11.5811
轻叹	-11.5813
禁法	-11.5815
宣	-11.5815
奎	-11.5816
丰	-11.5816
握住	-11.5816
罢休	-11.5816
冯	-11.5818
巢	-11.5818
蝉	-11.5819
抽搐一下	-11.582
星城	-11.582
江	-11.582
北冥岛	-11.5821
事关重大	-11.5821
前些日子	-11.5821
意下如何	-11.5821
多此一举	-11.5821
蓝瀑湖	-11.5821
真魂丹	-11.5821
肆虐	-11.5821
袁	-11.5821
洪	-11.5821
磷	-11.5821
鬼鬼祟祟	-11.5821
鲁大先生	-11.5821
束手就擒	-11.5821
趋	-11.5821
培婴丹	-11.5821
鸦雀无声	-11.5821
饱	-11.5821
堡垒	-11.5821
腔	-11.5821
主位上	-11.5821
如临大敌	-11.5821
防不胜防	-11.5821
养精蓄锐	-11.5821
将信将疑	-11.5821
一小会儿工夫后	-11.5821
成千上万	-11.5821
低不可闻	-11.5821
浆	-11.5821
降魔杖	-11.5821
玺印	-11.5821
礁石	-11.5821
惯例	-11.5821
匕首	-11.5821
皱了一下眉	-11.5821
拐杖	-11.5821
纸糊	-11.5821
▁不光如此	-11.5821
火阳族	-11.5821
祝姓青年	-11.5821
团团围住	-11.5821
不要见怪	-11.5821
做完这一切	-11.5821
恩怨	-11.5821
侄孙	-11.5821
学习	-11.5821
脑海中	-11.5822
简姓修士	-11.5822
晶族美妇	-11.5822
伙计	-11.5822
大头人	-11.5822
炼虚初期	-11.5822
轻叹一口气	-11.5822
容纳	-11.5822
照映	-11.5822
雷弧	-11.5822
瞳孔蓝芒	-11.5822
貌似	-11.5822
这话什么意思	-11.5822
配制	-11.5822
领队	-11.5823
自然更加	-11.5823
飘落而下	-11.5823
万年灵液	-11.5823
▁两日后	-11.5823
拼斗	-11.5823
年幼	-11.5823
初阶	-11.5823
极阴老祖	-11.5823
布阵	-11.5823
巴掌大小的	-11.5824
瞳孔深处	-11.5824
不愿轻易	-11.5824
合体级	-11.5825
笑了一下	-11.5825
挣脱而出	-11.5825
托盘	-11.5825
两声巨响	-11.5826
短刃	-11.5826
精品	-11.5827
任由	-11.5827
本店	-11.5828
席卷而出	-11.5828
贪心	-11.5828
双手一抱拳	-11.5829
这是怎么回事	-11.5829
飞驰而去	-11.5829
疑心	-11.5829
银针	-11.5829
仰天	-11.583
数百名	-11.5831
类型	-11.5831
在金光中	-11.5831
表面铭印着	-11.5831
隐匿之术	-11.5832
巨颤	-11.5832
轻叹了口气	-11.5832
失传	-11.5833
灵光一敛	-11.5833
血食	-11.5834
掀起	-11.5836
包含	-11.5838
符合	-11.5839
蛇妖	-11.5839
阳光	-11.584
古长老	-11.584
小树	-11.5841
漂浮在空中	-11.5841
淹没其中	-11.5841
六团	-11.5841
亮光	-11.5842
微微一笑的说道	-11.5844
到底是什么	-11.5846
三四个	-11.5848
有些渊源	-11.5849
原本一直	-11.5849
长短	-11.5852
还请	-11.5857
老二	-11.586
眼力	-11.586
听话	-11.5861
另一面	-11.5861
二三十	-11.5863
略一迟疑	-11.5864
找个	-11.5864
金色小剑	-11.5864
脱落	-11.5865
却已经迟了	-11.5866
要挟	-11.5866
四目	-11.5867
一滞	-11.587
破空离去	-11.5873
一卷其中	-11.5875
一想起	-11.5876
凝重异常	-11.5876
并没有露出	-11.5877
有些特殊	-11.5877
辣	-11.5879
滚滚而去	-11.5879
露出满意之色	-11.5882
就可发现	-11.5882
一倍	-11.5883
洞口处	-11.5883
丝毫异样	-11.5884
并无任何	-11.5887
荒山	-11.5887
大叫道	-11.5888
都不知道	-11.589
实用	-11.5891
关联	-11.5894
的确不是	-11.5896
居住在	-11.5897
竟硬生生的	-11.5898
冷笑一声的说道	-11.59
解释什么	-11.5903
大耗	-11.5903
到了韩立身前	-11.5904
还以为	-11.5904
迟疑了一下后	-11.5905
气势惊人	-11.5906
三丈	-11.5907
哪有什么	-11.5908
地盘	-11.591
飞动	-11.5918
化为三道	-11.5921
踌躇之色	-11.5922
复杂之色	-11.5923
而这时	-11.5924
方一出现	-11.5925
附近空间	-11.5927
还未曾	-11.5927
手指冲	-11.593
道兄	-11.5932
而空	-11.5933
一颗头颅	-11.5935
反卷	-11.5939
巨大化	-11.5942
风啸	-11.5943
往下一落	-11.5944
回应	-11.5945
凛	-11.5946
我们圣界	-11.5948
供桌	-11.595
另外两人	-11.595
回答什么	-11.5953
小半日	-11.5954
此狼	-11.5954
湖水	-11.596
广场上	-11.5964
唤出	-11.5967
三根	-11.5967
魔神	-11.5982
几株	-11.5982
束	-11.5983
虫母	-11.5987
鲜	-11.5988
看到这一幕	-11.5989
▁韩立深吸了一口气	-11.5991
浮现出无数	-11.5992
了不得的	-11.5995
从中传出	-11.5995
腰间储物袋	-11.5996
微点下头	-11.5998
一头撞	-11.5999
陆地	-11.6001
眼前之人	-11.6001
不言	-11.6003
无尽	-11.6003
一声轻响	-11.6008
那套	-11.601
碎裂开来	-11.6011
女人	-11.6014
在韩立面前	-11.6018
▁不过这时	-11.6018
斩断	-11.6019
往上面	-11.6019
此时的他	-11.602
强大神念	-11.6022
没动	-11.6022
蓦然浮现	-11.6023
一小截	-11.6027
这么多人	-11.6028
混在	-11.603
一抓而下	-11.6032
略显	-11.6036
正是那只	-11.6036
禁制之力	-11.6037
白天	-11.6042
面上现出	-11.6046
钟声	-11.6047
十成	-11.6047
青年男子	-11.6049
有种	-11.6051
狂注	-11.6053
径	-11.6058
千里之外	-11.6061
数枚	-11.6063
七叔	-11.6065
一下狂涨	-11.6067
陇	-11.6069
只是淡淡	-11.6069
出门	-11.6069
我们落云宗	-11.607
强压	-11.6073
筹	-11.6074
周边	-11.6075
妇	-11.6076
岛屿上	-11.6079
灵文	-11.608
错过	-11.6081
做过	-11.6081
夺宝	-11.6081
平淡	-11.6083
罩在其中	-11.6085
沿	-11.6086
另一件	-11.6087
障	-11.6088
大多数	-11.6089
布置好	-11.6089
株灵药	-11.6089
忧	-11.609
山腹	-11.6092
耀	-11.6092
材	-11.6093
铸	-11.6095
控	-11.6095
录	-11.6098
理解	-11.6098
嫌	-11.6098
耍	-11.6098
疤	-11.6098
阔	-11.6098
慧	-11.6098
苛刻	-11.6098
赤手空拳	-11.6098
如此近距离	-11.6098
毫不留情	-11.6098
气急败坏	-11.6098
土甲龙	-11.6098
茎	-11.6099
黑濛濛的	-11.6099
酸	-11.6099
黄濛濛的	-11.6099
娃娃	-11.6099
冥河神乳	-11.6099
哭笑不得	-11.6099
真真切切	-11.6099
不及防下	-11.6099
蹲	-11.6099
仅次于	-11.6099
褪	-11.6099
鲜红似血	-11.6099
托天魔功	-11.6099
谷双蒲	-11.6099
虎视眈眈	-11.6099
羞涩	-11.6099
海王族	-11.6099
珍惜	-11.6099
掺杂	-11.6099
一个多月	-11.6099
出了什么意外	-11.6099
应对之策	-11.6099
化为点点灵光的	-11.6099
占了上风	-11.6099
折磨	-11.6099
端详	-11.6099
齐天锣	-11.6099
沉寂	-11.6099
证明	-11.6099
一咧嘴	-11.6099
本命牌	-11.61
竖立	-11.61
剿灭	-11.61
世俗界	-11.61
影傀儡	-11.61
韩先生	-11.61
的余地	-11.61
改变主意	-11.61
晶粒	-11.6101
安然无事	-11.6101
瓜分	-11.6101
笼罩在了其中	-11.6101
拼命挣扎	-11.6101
铜片	-11.6101
匣子	-11.6101
发疯	-11.6101
特性	-11.6102
花些时间	-11.6102
有些动容了	-11.6102
电蛟	-11.6102
购买	-11.6102
破空声大起	-11.6102
白袍儒生	-11.6102
如无物	-11.6103
木屋	-11.6103
在什么地方	-11.6103
迟早	-11.6103
狂卷而去	-11.6104
银潮	-11.6104
起伏	-11.6104
顾家	-11.6105
家母	-11.6105
血光圣祖化身	-11.6105
礼物	-11.6105
忽视	-11.6106
拍卖场	-11.6106
毫无问题	-11.6107
重谢	-11.6107
结合	-11.6107
难以想象	-11.6107
兴起	-11.6107
打搅	-11.6107
亩许大小	-11.6107
林家	-11.6107
幻境	-11.6108
银光大放	-11.6108
交加	-11.6108
画像	-11.6108
尸狼	-11.6108
一弹而出	-11.6109
伤口处	-11.6109
怪刃	-11.6109
怪鱼	-11.6109
煞白	-11.6109
魔纹	-11.611
微微一沉	-11.6112
年纪轻轻	-11.6113
飞遁而来	-11.6113
白光大放	-11.6113
清明	-11.6114
金胖子	-11.6115
猜出了	-11.6115
夹带着	-11.6116
插口	-11.6117
晶体	-11.6117
白焰	-11.6118
眼也不眨一下	-11.6119
天赋神通	-11.612
进退	-11.612
摆放着	-11.6121
事关	-11.6122
异动	-11.6124
之劫	-11.6124
头部	-11.6125
几件宝物	-11.6126
暗含	-11.6127
银蛟	-11.6128
狠狠一击	-11.6129
之机	-11.6129
银白	-11.613
师父	-11.6131
古魔圣祖	-11.6134
毫不客气	-11.6135
不耐烦	-11.6137
传授给	-11.6138
走了出去	-11.6138
炼制成功	-11.6138
感应到了什么	-11.6139
无情	-11.614
葬身	-11.614
双耳	-11.6141
隐匿身形	-11.6141
韩立和蟹道人	-11.6142
三成	-11.6144
之类	-11.6146
施展了什么	-11.6148
此瓶	-11.6149
加大	-11.615
中期修士	-11.615
压住	-11.615
两位师兄	-11.6153
缩小起来	-11.6155
耐心	-11.6156
都如此说了	-11.6158
坐在那里	-11.6158
拂	-11.616
以韩立如今	-11.6162
杀死	-11.6163
说不定还能	-11.6163
皇宫	-11.6164
瞬移般的	-11.6164
脖颈上	-11.6166
五色门	-11.6169
丝毫不下于	-11.6169
吃惊的是	-11.6178
散尽	-11.6178
散发出一股	-11.6178
难听	-11.618
一下高涨	-11.618
大半日后	-11.618
说的那样	-11.618
自然不肯	-11.6181
灵眼	-11.6182
微微一抖	-11.6185
九层	-11.6186
十余丈之巨	-11.6188
▁韩立见到此幕	-11.6188
召回	-11.6189
其实就是	-11.6191
闪动着淡淡	-11.6193
大变起来	-11.6193
两千	-11.6197
破去	-11.6197
七层	-11.6197
解说	-11.6198
整条	-11.6199
往地上一	-11.62
更厉害	-11.6206
一闪的消失了	-11.6207
多谢道友	-11.6208
你们几个	-11.6211
一怔之后	-11.6212
惊慌之色	-11.6217
不耐	-11.6218
某间	-11.6219
魔火	-11.6226
我们几个	-11.6226
等各种	-11.6227
金色电网	-11.6228
一丝喜色	-11.6229
吹过	-11.6235
无法看清楚	-11.6235
错过了	-11.6235
抱住	-11.6239
缓缓转动	-11.6241
厚厚	-11.6241
一道接一道	-11.6243
凑到	-11.6243
云雾中	-11.6244
巨钟	-11.6245
一抓而去	-11.6245
大礼	-11.6246
吃过	-11.6247
出现在这里	-11.6248
说了一声	-11.6248
鬼道	-11.6252
也不是不可能的	-11.6256
张牙舞爪	-11.626
外力	-11.6262
望过来	-11.6263
其身边	-11.6264
内海	-11.6266
可不要	-11.6268
不同意	-11.627
总不能	-11.6273
很久	-11.6273
这也难怪	-11.6273
▁韩立看了看	-11.6275
血煞	-11.6275
肩头一晃	-11.6277
纹阵	-11.6277
从地上	-11.6278
本源	-11.6281
决不会	-11.6283
乏	-11.6287
雷鸣般的	-11.6288
熄	-11.6288
说定了	-11.6294
这小丫头	-11.6294
站着一名	-11.6295
继续说道	-11.6296
看重	-11.6296
进屋	-11.6298
再厉害	-11.6298
几乎每	-11.6298
困死	-11.63
多留	-11.6304
不灭	-11.6304
轰动	-11.6307
没有言语	-11.6313
大有用处	-11.6315
没有太大	-11.6319
检查过	-11.6322
强大神识	-11.6323
冲身后	-11.6325
未变	-11.6327
一握	-11.6329
超大	-11.6334
深陷	-11.6334
静养	-11.6335
喷出一团	-11.6339
谷外	-11.6343
微变	-11.6343
现在可不是	-11.6344
自行打开	-11.6345
小脸	-11.6346
待上	-11.6348
韩立双眉一挑	-11.6349
瞬间变得	-11.6352
掠	-11.6352
现在的他	-11.6356
黑色雾气	-11.6358
只剩	-11.6366
过了一会儿	-11.6367
急于	-11.6368
统一	-11.6374
带领	-11.6374
购	-11.6378
圭	-11.638
鳄	-11.6381
翼	-11.6381
协	-11.6381
一睁而开	-11.6382
梵音	-11.6383
直坠而下	-11.6384
眨了眨	-11.6384
两败俱伤	-11.6384
检验	-11.6384
畅	-11.6384
灵丹妙药	-11.6384
手下留情	-11.6384
函	-11.6384
臭	-11.6384
奏效	-11.6384
唐	-11.6384
烫	-11.6384
站起了身来	-11.6384
米	-11.6384
寰天奇	-11.6384
一无所知	-11.6384
孝	-11.6384
灵犀孔雀	-11.6384
赵无归	-11.6384
暗暗叫苦不迭	-11.6384
哨	-11.6384
心惊胆颤	-11.6384
化为灰烬	-11.6384
波澜	-11.6384
茂密	-11.6384
火月人	-11.6384
胎	-11.6384
刷	-11.6384
英俊	-11.6384
娶	-11.6384
金银两色	-11.6384
搁置	-11.6384
没有记错	-11.6384
真麟本源	-11.6384
一小团	-11.6384
四大妖王	-11.6384
半信半疑	-11.6384
大失所望	-11.6384
天极门	-11.6384
看也不看	-11.6384
积攒	-11.6384
弥合如初	-11.6385
六道极圣	-11.6385
数以千计的	-11.6385
考	-11.6385
这么一说	-11.6385
鞘	-11.6385
尖锐	-11.6385
连声称谢	-11.6385
商议	-11.6385
就这片刻耽搁	-11.6385
树林中	-11.6385
蓝颖	-11.6385
瞳孔中蓝芒	-11.6385
撕扯	-11.6385
商号	-11.6385
详谈	-11.6385
轮值	-11.6385
腥风	-11.6386
解惑	-11.6386
情绪	-11.6386
这么快就	-11.6386
一听韩立此言	-11.6386
于此	-11.6386
秦贵	-11.6386
铁笼	-11.6386
每隔一段时间	-11.6386
蓝霞	-11.6387
双腿	-11.6387
一段距离	-11.6387
慌张	-11.6387
鱼店主	-11.6387
肉翅	-11.6387
尽复	-11.6388
一枚枚	-11.6388
魔灾	-11.6388
运功	-11.6388
天地灵物	-11.6388
太一门	-11.6388
先是一愣	-11.6388
单论	-11.6389
整颗	-11.6389
穴灵	-11.639
方一现身而出	-11.6392
洞穴	-11.6392
金雷竹法宝	-11.6392
玄阴	-11.6392
在青光中	-11.6393
刺耳的尖鸣	-11.6394
颇有几分	-11.6395
姜前辈	-11.6395
似乎非常	-11.6395
高阶妖物	-11.6396
独门	-11.6397
划破	-11.6398
没有开口	-11.6398
见到这一幕	-11.6398
站立之处	-11.6398
一顿饭功夫后	-11.6398
药园内	-11.6399
乳白色光柱	-11.6399
厉兄	-11.64
细看之下	-11.6401
眼界	-11.6402
不用说了	-11.6402
双角	-11.6402
关于	-11.6403
消失得无影无踪	-11.6403
一串	-11.6403
不禁互望了一眼	-11.6404
所化巨人	-11.6405
外来人	-11.6405
诸族	-11.6405
聚集一起	-11.6406
自己的小命	-11.6407
飞了过去	-11.6408
同化	-11.6409
些时日	-11.6409
亲口	-11.641
第二个	-11.6411
附近空气	-11.6414
两只大手	-11.6415
白净	-11.6415
脸上全是	-11.6416
韩立眉梢一挑	-11.6417
家祖	-11.6418
蓦然浮现出	-11.6419
两株	-11.6419
三十多	-11.642
披发修士	-11.6423
指点一二	-11.6424
放了下来	-11.6425
不禁倒吸了一口凉气	-11.6425
越兄	-11.6428
金龙	-11.6428
木灵气	-11.6429
森然的说道	-11.6429
喷出一股	-11.643
身形一震	-11.6433
两把	-11.6434
一个时辰	-11.6434
此塔	-11.6435
沙地	-11.6435
招呼道	-11.6437
看上去	-11.6437
虚空一划	-11.6437
转眼间就化为	-11.6438
金色巨人	-11.6438
没有把握	-11.644
数年前	-11.6441
丝毫不惧	-11.6442
终于忍不住	-11.6442
十倍以上	-11.6443
空间裂缝中	-11.6443
外谷	-11.6444
霹雳声	-11.6444
欣喜之色	-11.6446
一堵	-11.6446
一模糊下	-11.6448
嫣然一笑的说道	-11.6448
一人之力	-11.645
也很清楚	-11.645
石兄	-11.6457
随着此声	-11.6458
怪罪	-11.6463
斩成	-11.6465
虽然不大	-11.6468
说到最后	-11.6468
我就知道	-11.6471
身体四周	-11.6473
熟悉异常	-11.6475
中心区	-11.6476
每一人	-11.6477
惧	-11.6477
男修士	-11.6479
有些无奈的说道	-11.648
迎风狂涨	-11.6484
向高空	-11.6488
金长老	-11.6494
除去	-11.6501
终于开口了	-11.6501
全心	-11.6501
若真能	-11.6503
撞到了一起	-11.6511
着急	-11.6515
舌头	-11.6516
飞蚁	-11.652
元丹	-11.652
金某	-11.6521
形成一个	-11.6524
冲向了	-11.6527
至少	-11.6528
跳跃	-11.6529
这些妖兽	-11.653
问出	-11.6531
数丈高	-11.6533
对面二人	-11.6533
剧烈颤抖	-11.6539
模糊不清起来	-11.6541
我们白家	-11.6543
飘荡	-11.6548
猜到	-11.6555
去路	-11.6555
不太一样	-11.6556
长袍老者	-11.6557
掏	-11.6559
绿雾中	-11.656
明知道	-11.6562
见韩立如此	-11.6564
扩	-11.6568
如此可怕	-11.6569
客厅	-11.6571
恐怕连	-11.6574
一种秘术	-11.6576
可靠	-11.6577
何等	-11.6579
剧烈波动	-11.6587
大问题	-11.6592
刚开始	-11.6596
狂涨巨大	-11.6598
怪笑声	-11.6599
丧失	-11.6599
十根	-11.6605
飞身	-11.6608
其余二人	-11.6608
不知是何	-11.6617
闪过一丝异色	-11.6618
境内	-11.662
打动	-11.6621
却毫不在意	-11.663
你认为	-11.6633
患	-11.6636
悬	-11.6636
你也知道	-11.6637
样东西	-11.6639
感应着	-11.6639
青白色	-11.6641
化为了无形	-11.6641
整座山峰	-11.6642
誓	-11.6642
一阵晃动	-11.6647
驻	-11.6649
数丈远	-11.6651
蓝光一闪	-11.6654
十几人	-11.6654
其他二人	-11.6655
成功率	-11.6656
一会儿工夫	-11.6658
正中间	-11.666
极致	-11.6661
如此简单	-11.6661
诡异浮现	-11.6662
一团黑光	-11.6664
黑狼	-11.6666
亩许	-11.6668
飞灰	-11.6669
提过	-11.667
一惊之下	-11.667
延	-11.6673
黑芒闪动	-11.6674
珍	-11.6675
晖	-11.6676
近千	-11.6676
一名血袍人	-11.6676
藤	-11.6677
寂	-11.6677
逆天神通	-11.6677
俊	-11.6677
压轴	-11.6678
拨	-11.6678
炙	-11.6678
轩	-11.6678
绳	-11.6678
蓝瀑圣祖	-11.6678
桥	-11.6678
无恙	-11.6678
巍	-11.6678
心狠手辣	-11.6678
酿制	-11.6678
落日之墓	-11.6678
虬	-11.6678
呵斥	-11.6678
老奸巨猾	-11.6678
太阴火鸟	-11.6678
黛眉一挑	-11.6678
千疮百孔	-11.6678
尊姓大名	-11.6678
空无一物	-11.6678
天外魔君	-11.6678
木冠老者	-11.6678
辱	-11.6678
幸灾乐祸	-11.6678
毕露	-11.6678
通宝诀	-11.6678
口吐人言	-11.6678
呼庆雷	-11.6678
木界大阵	-11.6678
炫	-11.6678
衣襟	-11.6678
阴阳窟	-11.6678
一小段	-11.6678
吸到了手中	-11.6678
祭雷术	-11.6678
随身携带	-11.6678
摔	-11.6678
牌匾	-11.6678
普普通通	-11.6678
秦晓	-11.6678
抗拒	-11.6679
灰衣老者	-11.6679
白衫老者	-11.6679
杏唇	-11.6679
洗灵池和净灵莲	-11.6679
如斯	-11.6679
几个呼吸间的工夫	-11.6679
欺骗	-11.6679
森严	-11.6679
丝毫效果没有	-11.6679
金银细丝	-11.6679
吴九指	-11.6679
紧追不舍	-11.6679
原委	-11.6679
密集	-11.6679
光泽	-11.6679
天外魔甲	-11.6679
援兵	-11.6679
那就有劳	-11.6679
一大笔	-11.668
倍增	-11.668
禁地之行	-11.668
尚未来得及	-11.668
隔壁	-11.668
默然不语	-11.668
详情	-11.668
转化为	-11.668
炼体术	-11.668
焦黄	-11.6681
凶狠	-11.6681
造化丹	-11.6681
棍影	-11.6681
腰部	-11.6681
薄弱	-11.6681
灌木	-11.6681
破损	-11.6681
在雷鸣声中	-11.6681
力尊者	-11.6682
保密	-11.6682
圣树	-11.6682
那头螟虫之母	-11.6682
滔天	-11.6682
管理	-11.6682
功劳	-11.6682
操心	-11.6682
魔渊	-11.6683
血侍	-11.6683
肉球	-11.6683
对他们来说	-11.6683
一听韩立之言	-11.6684
扫了一遍	-11.6684
嗖嗖	-11.6684
一斩而开	-11.6684
通常	-11.6685
从储物袋中掏出	-11.6685
差异	-11.6685
自愿	-11.6686
还要多	-11.6686
血痕	-11.6687
大乘强者	-11.6687
脸色有些难看	-11.6687
微微一愣	-11.6687
炼虚级存在	-11.6688
取消	-11.6688
口中得知	-11.6689
虚空一招	-11.669
请求	-11.669
瞒不过	-11.669
愣了一下	-11.669
红袍	-11.6691
从原地消失	-11.6691
整日	-11.6691
混沌谷	-11.6692
紫色战甲	-11.6692
招收	-11.6693
数十根	-11.6693
化为一道金虹	-11.6694
灵芒	-11.6694
大爷	-11.6695
仙师大人	-11.6696
精力	-11.6696
为止	-11.6696
赤红火球	-11.6697
怒色	-11.6697
星光	-11.6698
铭印有	-11.6699
此境界	-11.6702
漆黑魔气	-11.6703
探子	-11.6703
如此轻松	-11.6703
对敌时	-11.6703
大感头痛	-11.6704
合体后期修士	-11.6705
金文	-11.6706
又问了一句	-11.6706
收走	-11.6707
五指一张	-11.6707
一个黑乎乎的	-11.6708
宝花圣祖	-11.6709
尽出	-11.671
滴溜溜的一转	-11.6712
犹豫之色	-11.6712
闲着	-11.6714
几遍	-11.6715
唯有	-11.6716
贴在了	-11.672
敌手	-11.6722
同为	-11.6723
悬浮着	-11.6724
玩笑	-11.6725
修炼至	-11.6728
冷静异常	-11.6729
道袍	-11.673
大为忌惮	-11.6731
心里不禁	-11.6731
迎风一晃	-11.6733
口子	-11.6733
无形之体	-11.6735
一伸手	-11.6736
数万里	-11.6738
发出阵阵	-11.6738
血剑	-11.674
始终无法	-11.6741
逃生	-11.6741
木门	-11.6742
通天	-11.6744
青狼	-11.6744
又怎敢	-11.6747
另外一种	-11.6747
灵焰	-11.6747
无一不	-11.6748
这两样东西	-11.6751
杀心	-11.6752
传音道	-11.6753
握拳	-11.6753
一下变成了	-11.6753
而归	-11.6754
从中喷出	-11.6756
尖啸	-11.6757
轻吐	-11.6761
一个晃动后	-11.6762
总是	-11.6765
货真价实的	-11.6768
座极山	-11.6768
比不上	-11.6772
数座	-11.6772
扇动	-11.6776
其他异族	-11.6777
下了禁制	-11.6777
许道友	-11.6778
舟上	-11.6779
还给了	-11.6779
占地	-11.6783
一声巨吼	-11.6783
最少	-11.6784
黑雾中	-11.6784
也罢	-11.6787
瞬间化为了	-11.679
地形	-11.6792
就不客气了	-11.6797
宝塔	-11.6801
有自信	-11.6801
休息一下	-11.6801
六层	-11.6802
娇小	-11.6805
猛然一催	-11.6805
颤抖起来	-11.6806
心念一动	-11.6807
一声龙吟	-11.681
模糊人影	-11.6811
每次都	-11.6813
图画	-11.6816
是哪一	-11.6818
趴伏	-11.682
不算多	-11.682
闪动几下后	-11.6827
有些阴沉	-11.683
半晌后才	-11.6832
▁韩立目光在	-11.6833
做到此事的	-11.6836
也懒得	-11.685
察	-11.6856
十岁	-11.6856
一条通道	-11.6857
奇才	-11.6857
到了韩立面前	-11.6858
笑嘻嘻	-11.6859
数寸长	-11.686
的大吼	-11.6865
看一眼	-11.6867
两名老者	-11.6867
经文	-11.6872
剑身	-11.6873
极难	-11.6876
可笑	-11.6877
可怕之极	-11.6878
抵住	-11.688
没见过	-11.6881
听了之后	-11.6882
小口	-11.6889
两名魔族	-11.689
而韩立则	-11.6891
炼化成	-11.6892
想让我	-11.6897
妖兽材料	-11.6899
苍白异常	-11.69
只能硬着头皮	-11.69
不少修士	-11.6901
我夫妇	-11.6903
深海	-11.6904
原本以为	-11.6907
闪动几下	-11.6908
击向	-11.6909
也有一些	-11.6909
惹出	-11.6911
走入	-11.6911
十分肯定	-11.6911
难逃	-11.6912
这一路上	-11.6912
劲儿	-11.6916
有些不甘心	-11.6917
阁楼大门	-11.6917
薄雾	-11.6919
修士们	-11.6922
不留	-11.6922
一口答应	-11.6924
一声低鸣	-11.6929
异族大乘	-11.6929
盘膝	-11.6929
问些什么	-11.693
追到	-11.6936
一刻钟	-11.694
露出喜色	-11.6942
这四名	-11.6942
行走	-11.6946
两道惊虹	-11.695
反倒	-11.6956
稀	-11.6958
在这一瞬间	-11.6959
绿肤	-11.6961
享	-11.6961
思量了一会儿	-11.6962
远的距离	-11.6962
一抿	-11.6962
元婴老怪	-11.6964
凤道友	-11.6964
市	-11.6969
面容普通	-11.6971
魔海	-11.6971
操	-11.6977
忠	-11.6977
逝	-11.6978
毙	-11.6979
断臂	-11.6979
锐	-11.698
涉	-11.6981
阿	-11.6981
伴侣	-11.6981
编	-11.6981
天机府	-11.6981
牢	-11.6981
昌	-11.6981
阅	-11.6981
四分五裂	-11.6981
砂	-11.6981
动起手来	-11.6981
好长一段时间	-11.6981
账	-11.6981
黑裙少妇	-11.6981
好奇心大起	-11.6981
反抗	-11.6981
后顾之忧	-11.6981
纵横交错	-11.6981
鸣煞之地	-11.6981
破口大骂	-11.6981
火弹术	-11.6981
青元宫	-11.6981
喷出了口外	-11.6981
沫	-11.6981
呀	-11.6981
嚎	-11.6981
黑脸道士	-11.6981
瓦解	-11.6981
贪婪之色	-11.6981
非比寻常	-11.6981
稀疏	-11.6981
一网打尽	-11.6981
静悄悄的	-11.6981
跃跃欲试	-11.6981
一阵大乱	-11.6982
掷	-11.6982
肉眼可见的	-11.6982
角蚩人	-11.6982
青罗果	-11.6982
绳索	-11.6982
大打出手	-11.6982
导致	-11.6982
差距	-11.6982
人事不知	-11.6982
迎头罩下	-11.6982
冷酷	-11.6982
极元晶	-11.6982
落日峰	-11.6982
暴风山	-11.6982
王总管	-11.6982
林鸾仙子	-11.6982
冥焰果	-11.6982
认输	-11.6982
皱纹	-11.6982
丰满	-11.6983
克星	-11.6983
技巧	-11.6983
警觉	-11.6983
讨论	-11.6983
带在身上	-11.6983
往身前一抛	-11.6983
见谅	-11.6983
瘦弱	-11.6983
改善	-11.6983
滚落而下	-11.6983
摸摸	-11.6983
步骤	-11.6983
蠢事	-11.6983
神乳	-11.6983
实质	-11.6984
反抗之力	-11.6984
摸样	-11.6984
感谢	-11.6984
麻烦大了	-11.6984
但也知道	-11.6984
严密	-11.6984
师尊	-11.6985
抬手一招	-11.6985
沉吟不语	-11.6985
楼台	-11.6986
喜爱	-11.6986
少门主	-11.6987
的诡异感觉	-11.6987
结实	-11.6987
有些发白	-11.6988
紫灵姑娘	-11.6988
漫长	-11.6988
弩箭般的	-11.6988
蟒蛇	-11.6988
飞屋中	-11.6988
常见的	-11.6989
圣药	-11.6989
密术	-11.6991
难以置信的表情	-11.6991
淡绿	-11.6992
苦笑一声的回道	-11.6992
运气不错	-11.6992
近期	-11.6993
斗篷女子	-11.6993
没入其中不见了踪影	-11.6993
银莲	-11.6994
过关	-11.6994
有何举动	-11.6994
想了一下	-11.6995
心中有数	-11.6995
紧挨着	-11.6996
恢复了原先的	-11.6996
整间大厅	-11.6998
摄到了	-11.6999
男弟子	-11.6999
多年前	-11.6999
石峰	-11.6999
看了一遍	-11.6999
四臂	-11.6999
这么长时间	-11.7
月许时间	-11.7
传出一声	-11.7001
很容易	-11.7002
女性	-11.7002
横扫	-11.7002
打量了几眼	-11.7003
三色火焰	-11.7003
怒气	-11.7003
卖给	-11.7005
桌椅	-11.7005
掺和	-11.7006
为之一愣	-11.7006
及早	-11.7007
一会儿的功夫	-11.7007
转了一圈后	-11.7008
年轻男子	-11.7011
山丘	-11.7012
脸上露出了一丝	-11.7013
金属性	-11.7014
可以肯定	-11.7015
两位长老	-11.7016
多谢韩兄	-11.7017
噬金虫群	-11.7017
验证	-11.7018
否则万一	-11.7018
手足	-11.7018
数张	-11.7019
火团	-11.702
又有何用	-11.702
不得已	-11.7021
小队	-11.7021
整个灵界	-11.7021
尚未真的	-11.7022
三位前辈	-11.7022
挤压	-11.7024
一摇	-11.7027
犀利异常	-11.7029
一裹	-11.7032
纤纤此女	-11.7033
不愿再	-11.7033
一朵朵	-11.7033
一眼看出	-11.7035
彻底消失了	-11.7036
其他几种	-11.7038
面具女子	-11.7038
分离	-11.704
金色虚影	-11.7042
还记得	-11.7043
还有机会	-11.7044
微眯了起来	-11.7045
重新回到了	-11.7045
声音一冷	-11.7045
八个	-11.7047
增强	-11.706
逃到	-11.7063
怎能不	-11.7064
费用	-11.7065
预感	-11.707
怪啸	-11.7073
多心了	-11.7073
三十丈	-11.7075
袖子冲	-11.7081
远不是	-11.7081
修炼之法	-11.7083
韩立的身形	-11.7085
和善	-11.7086
一块玉简	-11.7089
蓦然一惊	-11.7089
现出一只	-11.7091
真正实力	-11.7098
有十几名	-11.7099
长发	-11.7099
现形	-11.7102
最后一层	-11.7104
小刀	-11.7107
只觉得	-11.7111
无影无踪	-11.7112
洞穿而出	-11.7119
无数碎片	-11.7119
就诡异的出现在了	-11.7125
广寒界中	-11.7126
森	-11.7131
是否真有	-11.7132
计定	-11.7132
有要事在身	-11.7136
根本不用	-11.7138
拉着	-11.7146
难看之极	-11.7152
地宫	-11.7154
小些的	-11.7156
排成	-11.7157
个大概	-11.7158
提此事	-11.7158
谁也不	-11.7168
此念头	-11.7171
是来自	-11.7171
一股黑气	-11.7172
蛇首	-11.7173
小嘴	-11.7173
厉害禁制	-11.7175
而现	-11.7178
宝珠	-11.718
不知过了多久	-11.7182
打破	-11.7186
兽吼	-11.7188
听韩立如此一	-11.7194
写着	-11.7201
痛快	-11.7203
一看见	-11.7204
嘶	-11.7217
百万里	-11.7226
身形一颤	-11.7226
一只大手	-11.7227
碑	-11.723
这份	-11.723
嘴角露出一丝	-11.7231
出什么意外	-11.7231
谁会	-11.7231
三四十	-11.7232
寸进	-11.7234
本圣祖	-11.7236
乎乎的	-11.7238
到了跟前	-11.7238
大嘴	-11.7241
青色人影	-11.7246
数个时辰	-11.7253
咬住	-11.7255
带着曲魂	-11.7255
没办法	-11.7256
坠入	-11.7259
苗条	-11.726
化为了一只	-11.726
赶回	-11.726
楚	-11.7263
拿到手	-11.7264
韩立微微一怔	-11.7267
面带微笑的	-11.727
眼睁睁的看着	-11.727
清除	-11.7276
已经迟了	-11.7277
是何来历	-11.7277
懒	-11.7279
一闭	-11.728
两物	-11.728
执	-11.7289
矢	-11.7291
述	-11.7292
糊	-11.7292
介	-11.7292
睹	-11.7293
匣盖	-11.7293
伯	-11.7293
违	-11.7293
铭	-11.7293
症	-11.7293
盗	-11.7294
雀	-11.7294
沾	-11.7294
杏	-11.7294
心知肚明	-11.7294
肖	-11.7294
琼	-11.7294
嘟	-11.7294
络	-11.7294
庸	-11.7294
樊咆子	-11.7294
呆了一呆	-11.7294
玄天之剑	-11.7294
知无不言	-11.7294
金角青年	-11.7294
艺	-11.7294
心惊肉跳	-11.7294
勃	-11.7294
笑而不语	-11.7294
陡	-11.7294
乌龙夺	-11.7294
您	-11.7294
答案	-11.7294
晴天霹雳	-11.7294
煞魂丝	-11.7294
的架势	-11.7294
汪	-11.7294
鱼眼人	-11.7294
文心凤	-11.7294
顿了一顿	-11.7294
升仙大会	-11.7294
勇	-11.7294
滩	-11.7294
穆	-11.7294
肆意	-11.7294
不知从何处	-11.7294
桩	-11.7294
俏丽	-11.7294
为了防止	-11.7294
军官	-11.7294
万灵台	-11.7294
赛	-11.7294
翡翠蛟龙	-11.7294
狞色一现	-11.7294
大袖一甩	-11.7295
胡须	-11.7295
迎了上去	-11.7295
稳固	-11.7295
预测	-11.7295
确实	-11.7295
雪晶珠	-11.7295
凤舞	-11.7295
万年尸熊	-11.7295
跨界	-11.7295
一波波	-11.7295
雷鸣声大作	-11.7296
秀眉	-11.7296
差哪里去	-11.7296
寸寸碎裂而开	-11.7296
单手一翻	-11.7296
稳住身形	-11.7296
尚未来及	-11.7296
灌体	-11.7296
元气大损	-11.7296
炼虚中期	-11.7296
逊色	-11.7297
清晰可见	-11.7297
吞食	-11.7297
晖长老	-11.7297
飞蛾	-11.7297
命丧	-11.7297
但心里却	-11.7297
惊人的一幕出现了	-11.7298
探寻	-11.7298
短短时间内	-11.7298
心脏	-11.7298
毒液	-11.7298
相赠	-11.7298
罗盘	-11.7298
一道刺目	-11.7299
朝四面八方	-11.7299
表明	-11.73
莲影	-11.73
土包	-11.73
修仙宗门	-11.73
减轻	-11.73
一个接一个	-11.73
某一方向	-11.73
错觉	-11.7301
修罗	-11.7301
嘴边	-11.7301
炼虚境界	-11.7301
有些犹豫	-11.7301
口金色飞剑	-11.7302
看上一眼	-11.7302
这种地步	-11.7302
黑衣修士	-11.7304
为之一沉	-11.7305
城堡	-11.7305
六臂	-11.7305
骨刺	-11.7306
火苗	-11.7306
厉鬼	-11.7306
独自一人	-11.7306
富某	-11.7307
闭目打坐	-11.7307
性情	-11.7308
空空	-11.7309
前途	-11.7309
巨莲	-11.731
想象中的	-11.731
阴罗宗长老	-11.7311
第五层	-11.7311
土黄色	-11.7313
击伤	-11.7313
打了个	-11.7313
前者	-11.7314
马师兄	-11.7314
紫色火焰	-11.7315
这件事情	-11.7316
七色光晕	-11.7317
时间一长	-11.7318
厅堂内	-11.732
双魔	-11.7322
窟	-11.7322
一般情况下	-11.7323
此草	-11.7325
撞到	-11.7326
我还以为	-11.7326
三道遁光	-11.7327
一件件	-11.7327
大城	-11.7328
四角	-11.7328
有什么话	-11.7329
低低的嗡鸣	-11.733
远超普通	-11.7332
凭空不见了	-11.7333
其他方向	-11.7333
家里	-11.7334
神念一动下	-11.7334
方一飞出	-11.7334
大喜的说道	-11.7335
巨蝠	-11.7336
怪风	-11.7338
旁人	-11.7338
放心下来	-11.7339
认定	-11.7339
快点	-11.734
笑话	-11.7341
一阵颤抖	-11.7343
厉害无比	-11.7344
杀气	-11.7348
无言	-11.7351
白仙子	-11.7352
一大批	-11.7356
一催法诀	-11.7359
目中一丝	-11.736
不短	-11.7361
两两	-11.7361
出海	-11.7361
心中一横	-11.7364
密室大门	-11.7365
一闪的不见了	-11.7374
撤去	-11.7377
月牙	-11.7378
才不慌不忙的	-11.738
踏进	-11.7381
风兄	-11.7385
路途	-11.7386
重新返回	-11.7386
就若无其事的	-11.7386
化为一颗	-11.7389
已经算是	-11.7389
大限	-11.7389
已经身处	-11.7391
本岛	-11.7391
目前	-11.7391
涌动	-11.7392
小道士	-11.7398
这就好	-11.7399
涉及	-11.74
风某	-11.7407
最快	-11.7411
不足以	-11.7413
凝结出	-11.7414
洞府所在	-11.7415
朵朵	-11.7415
凭着	-11.7415
止水	-11.7418
过去看看	-11.7421
有些遗憾	-11.7421
韩立没有客气	-11.7422
一号	-11.7422
七八个	-11.7423
此图	-11.7423
强大存在	-11.7425
神色木然	-11.7427
十二条	-11.7429
一团绿光	-11.743
太难	-11.7433
淡淡的问道	-11.7434
附近区域	-11.7434
还怕	-11.7443
跟了上去	-11.7445
黑水	-11.7446
空间神通	-11.7455
环绕	-11.7458
神念扫过	-11.7461
莹	-11.7461
多事	-11.7463
而下一刻	-11.7474
赶去	-11.7475
救出	-11.7478
遭到	-11.7483
岩石	-11.7484
天地法则	-11.7486
这些丹药	-11.7486
还需	-11.7487
确切	-11.7499
一道纤细	-11.7501
竟一下化为	-11.7504
大半都是	-11.7511
球体	-11.7513
口中喷出	-11.7518
惊天动地的巨响	-11.7519
越好	-11.7521
多待	-11.7522
插入	-11.7531
此猿	-11.7535
惊天动地	-11.7538
复原	-11.754
非得	-11.7541
寸许	-11.7542
从雾气中	-11.7543
诡异的浮现	-11.7543
一只灵兽袋	-11.7546
不小啊	-11.7548
极低	-11.7548
法力消耗	-11.7549
第五	-11.755
重生	-11.7555
蓝色光幕	-11.7556
找回	-11.7567
不论	-11.7571
巨大光阵	-11.7572
突兀	-11.7573
孽	-11.7577
匣	-11.7578
不论是	-11.7582
一团精血	-11.7582
岭	-11.7586
还真够	-11.7596
去办	-11.7599
骂	-11.76
敞	-11.7603
联想到	-11.7603
不用怕	-11.7605
目中蓝芒闪动	-11.7605
何物	-11.7611
脏	-11.7612
剧	-11.7614
躁	-11.7615
贤侄	-11.7616
匹	-11.7616
愤	-11.7616
销	-11.7616
镯	-11.7616
性命之忧	-11.7616
惯	-11.7616
罡银沙	-11.7616
萧翠儿	-11.7616
田飞儿	-11.7616
兽尊殿	-11.7616
木棉城	-11.7616
寸步不离	-11.7616
惊蛰诀	-11.7616
汁	-11.7616
曹梦容	-11.7616
肺	-11.7616
血魔剑	-11.7616
一窝蜂的	-11.7616
后发先至	-11.7616
打了个冷战	-11.7616
洞天鼠王	-11.7616
伤痕累累	-11.7616
面不改色	-11.7616
张袖儿	-11.7617
明清灵眼	-11.7617
黯淡无光	-11.7617
钺	-11.7617
灼热	-11.7617
暖	-11.7617
尺许来长	-11.7617
租	-11.7617
蛆	-11.7617
飘忽不定	-11.7617
紧接	-11.7617
黄衣人	-11.7617
天元境	-11.7617
捕捉	-11.7617
庙	-11.7617
一声不吭	-11.7617
黄泉地火	-11.7617
化仙宗	-11.7617
大上师	-11.7617
姿容	-11.7617
暗地里	-11.7617
金花老祖	-11.7617
逆徒	-11.7617
逆转	-11.7617
紧追不放	-11.7617
尤姓修士	-11.7617
脸颊	-11.7617
遗漏	-11.7617
灵性十足	-11.7618
高瘦法士	-11.7618
舌尖	-11.7618
尚未真的落下	-11.7618
夜叉王	-11.7618
孽云	-11.7618
伤亡	-11.7618
七窍	-11.7618
白嫩	-11.7618
冒险一试	-11.7619
穿透	-11.7619
双肩	-11.7619
游荡	-11.7619
伤痕	-11.7619
如此多年过去了	-11.7619
刺痛	-11.762
丢失	-11.762
伸手一招	-11.762
的日子里	-11.762
一道乌光	-11.762
真仙降临	-11.762
初步	-11.762
卜算	-11.762
每一只都	-11.762
寒光闪闪	-11.7621
尖尖	-11.7621
玄机	-11.7621
无形剑气	-11.7621
深埋	-11.7621
魏兄	-11.7621
灰白之气	-11.7621
忠心	-11.7621
替代	-11.7621
为之一缓	-11.7622
代替	-11.7622
受益	-11.7622
晶墙	-11.7623
低首看了看	-11.7623
设有	-11.7624
装作	-11.7624
天下间	-11.7624
魔斑	-11.7624
双袖一抖	-11.7625
剑幕	-11.7626
炼虚等阶	-11.7626
界面之力	-11.7626
炼器术	-11.7626
强忍着	-11.7626
精纯灵力	-11.7626
母魔	-11.7626
转世	-11.7626
看的目瞪口呆	-11.7627
追求	-11.7627
十几团	-11.7627
狠狠击在了	-11.7628
雷网	-11.7628
到底有何	-11.7629
木尺	-11.7629
视作	-11.763
韩师兄	-11.763
丝毫异样没有	-11.763
温青	-11.763
名堂	-11.7631
分布	-11.7631
苦笑不已	-11.7632
哪有丝毫	-11.7632
元婴级修士	-11.7632
摸索	-11.7632
寒毒	-11.7633
一卷而来	-11.7634
尸骨	-11.7634
含笑说道	-11.7635
凝聚而出	-11.7635
巨锤	-11.7637
相交	-11.7637
黑衣人	-11.7638
承认道	-11.7639
竹子	-11.7639
飞奔	-11.7642
体表灵光一闪	-11.7642
御灵宗修士	-11.7643
放了出来	-11.7643
痛苦之色	-11.7644
城门处	-11.7644
感到意外	-11.7644
数尺大小	-11.7644
不以为意的说道	-11.7644
数丈远处	-11.7645
指挥着	-11.7646
实在不行	-11.7646
闪了几闪后	-11.7647
小箭	-11.7647
以他如今的	-11.7648
看的清楚	-11.7648
认错	-11.7648
奇花	-11.7649
阵眼处	-11.7649
光滑异常	-11.7649
风火	-11.765
妖魂	-11.765
根本看不出	-11.7651
淡淡的声音	-11.7651
冷笑了起来	-11.7651
拉长	-11.7652
大声说道	-11.7654
金色拳头	-11.7656
绞杀	-11.7656
逆星盟修士	-11.7657
▁韩立自然不知道	-11.7657
流光	-11.7658
浮现在了手中	-11.7659
神像	-11.7661
无奈之色	-11.7662
所讲	-11.7662
等候着	-11.7664
含笑的说道	-11.7668
引得	-11.7669
飞射到了	-11.7669
化为一道白虹	-11.767
飞行着	-11.767
换做	-11.7673
喷到了	-11.7673
仙宫	-11.7675
曾经见过	-11.7679
郑重的说道	-11.7681
干吗	-11.7683
身上一扫而过	-11.7684
妙用	-11.7686
闯过	-11.7687
化为一道金光	-11.7688
心中一寒	-11.7692
丝毫不敢	-11.7694
一路向	-11.7695
夺回	-11.7698
白色光罩	-11.77
十一层	-11.7704
先回去	-11.7705
铜柱	-11.7706
千万不要	-11.771
▁一进	-11.7716
引开	-11.7721
较高	-11.7721
口风	-11.7723
意外发生	-11.7726
魔宫	-11.7727
角蚩族人	-11.773
龙岛	-11.773
恶狠狠	-11.7738
阴沉异常	-11.7739
忍受	-11.7742
威名	-11.7744
淡黑色	-11.7751
圣砖	-11.7754
神秘修士	-11.7756
迎上	-11.7757
万年玄玉	-11.7757
有些踌躇	-11.7759
陌生的很	-11.7761
摆出	-11.7762
在其身前	-11.7766
像这样	-11.7767
爆裂之声	-11.7767
银色光罩	-11.7769
翻身	-11.777
天渊城长老	-11.7774
韩立眨了眨眼睛	-11.7776
溜走	-11.7779
这般举动	-11.778
变得难看之极	-11.7783
传入	-11.7789
有些阴晴不定	-11.779
并未发现	-11.7791
面上露出	-11.7795
这几年	-11.7799
片刻间就	-11.7799
讶然之色	-11.7801
空地上	-11.7805
大为满意	-11.7805
留在原地	-11.7806
到底如何	-11.7807
没有迟疑的	-11.7808
不漏	-11.7809
成的把握	-11.7811
一直未	-11.782
轻描淡写	-11.7824
一砸而下	-11.7825
划出	-11.7831
分给	-11.7831
记住	-11.7832
一卷而起	-11.7843
黄龙	-11.7844
可算	-11.7845
南陇侯二人	-11.7848
又想起了什么	-11.7851
罕有人	-11.7853
直向	-11.7853
八颗	-11.7857
赫然是一只	-11.7859
始终没有	-11.7863
抓向	-11.7867
片刻时间	-11.7868
守住	-11.7869
其余三人	-11.7871
四年	-11.7873
蹿出	-11.7873
有的却	-11.7878
灵石矿	-11.788
雷击	-11.7883
最弱	-11.7884
静静的悬浮在	-11.7885
神念一催	-11.7891
一阵轰鸣	-11.7895
滴血	-11.79
一个翻转	-11.7903
大亏	-11.7908
从来没有	-11.791
直直	-11.7911
晶莹异常	-11.7914
夹带	-11.7919
青色火焰	-11.7921
一干二净	-11.7923
寸许大	-11.7932
威力之大	-11.7932
凭空出现在了	-11.7933
雷鸣之声	-11.7936
式	-11.794
习	-11.7946
屏	-11.7947
蠢	-11.7947
坦	-11.7947
龄	-11.7949
饶	-11.7949
著	-11.7949
齿	-11.7949
逆星盘	-11.795
诈	-11.795
坚不可摧	-11.795
丛	-11.795
激射向	-11.795
嚷	-11.795
衷	-11.795
名义上	-11.795
铲	-11.795
腮	-11.795
馆	-11.795
维	-11.795
两个时辰后	-11.795
惊慌失措	-11.795
贺礼	-11.795
阴罗幡	-11.795
慈	-11.795
珈轮战魔	-11.795
一顿饭的功夫	-11.795
不嫌弃的话	-11.795
揣	-11.795
居高临下	-11.795
蒙山五友	-11.795
一劈而下	-11.795
不灭天尊	-11.795
满头大汗	-11.795
衍	-11.795
为了小心起见	-11.795
改变了主意	-11.795
晓风仙子	-11.795
一番话来	-11.795
提心吊胆	-11.795
眉头皱了皱	-11.795
乌灵夫人	-11.795
眉清目秀	-11.795
沈重山	-11.795
半人半	-11.795
小算盘	-11.795
万剑图	-11.795
井	-11.795
以肉眼可见的速度	-11.795
灰发老者	-11.795
不再理睬	-11.795
磁光兽	-11.795
迷惑	-11.795
十六七岁	-11.795
》	-11.795
一声低呼	-11.795
孩童	-11.795
枯萎	-11.795
从储物袋中摸出	-11.795
《	-11.795
如实相告	-11.795
四下张望	-11.795
脸色一白	-11.795
关键之处	-11.795
翅翼	-11.795
铡刀	-11.795
石茧族	-11.795
成年修罗蛛	-11.795
迎了上来	-11.7951
狐媚	-11.7951
的反问一句	-11.7951
檀香	-11.7951
估算	-11.7951
举止	-11.7951
哀求	-11.7951
理智	-11.7951
特制	-11.7952
扫荡	-11.7952
加速	-11.7953
肉痛	-11.7953
提议	-11.7953
云霞	-11.7953
天兆	-11.7953
夜晚	-11.7954
尖刺	-11.7954
损坏	-11.7954
罡风	-11.7955
泉水	-11.7955
缩短	-11.7955
意义	-11.7955
雷鹏	-11.7955
特有的	-11.7956
万里符	-11.7956
不落下风	-11.7956
门人弟子	-11.7956
士气	-11.7956
平常时候	-11.7956
一阵剧烈	-11.7956
破旧	-11.7956
魔狮	-11.7957
转过头	-11.7957
说着什么	-11.7957
抛出	-11.7957
盒中之物	-11.7958
绝世	-11.7958
脸色铁青	-11.7958
接连不断	-11.7958
谈谈	-11.7959
正确	-11.7959
春风	-11.7959
天泣	-11.796
草药	-11.796
交错	-11.796
明兄	-11.7961
灵矿	-11.7961
噗通	-11.7961
是不是该	-11.7961
在原地消失了	-11.7961
从中一喷而出	-11.7961
掉落而下	-11.7962
三色噬金虫	-11.7962
口中称谢	-11.7962
黑气翻滚	-11.7962
破空射出	-11.7963
奇寒无比	-11.7964
抿嘴一笑	-11.7964
巨蜂	-11.7964
白衣青年	-11.7965
奢望	-11.7965
哈哈大笑起来	-11.7965
数丈远去	-11.7965
银钟	-11.7965
数道法诀	-11.7966
雪花	-11.7966
阴冷	-11.7966
凭空生出	-11.7967
隐秘之地	-11.7967
巨墙	-11.7968
五爪	-11.7968
怪脸	-11.797
木椅上	-11.797
拉扯	-11.7971
拿了出来	-11.7972
冲天而去	-11.7972
惨死	-11.7975
叹息一声	-11.7976
侍从	-11.7976
并不太多	-11.7977
之语	-11.7978
整座大殿	-11.7978
凶手	-11.7979
炼虚期修士	-11.7979
驾驭着	-11.7982
天地间	-11.7982
异色闪过	-11.7985
恍然之色	-11.7986
冰魄道友	-11.7986
灵皮	-11.7987
猛然一抖	-11.7988
可以做到的	-11.7989
失色	-11.7989
最后一步	-11.7991
木剑	-11.7991
锋利异常	-11.7993
斩杀掉	-11.7995
并列	-11.7997
惊怒异常	-11.7998
轻笑道	-11.7998
五千	-11.7998
改动	-11.8
变换	-11.8
其余地方	-11.8001
第六层	-11.8005
他自问	-11.8005
只差	-11.8005
此剑阵	-11.8011
▁韩立听到这里	-11.8011
解救	-11.8018
神血	-11.8022
鬼气	-11.8024
威力奇大	-11.8032
扑出	-11.8033
化为一道乌光	-11.8033
通体晶莹	-11.8035
吸进了	-11.8036
开口询问	-11.8037
火液	-11.8037
星宫修士	-11.8041
倍许以上	-11.8043
大美女	-11.8043
交往	-11.8044
久远	-11.8044
手中动作	-11.8045
那里得到	-11.8045
泥土中	-11.8047
判断出	-11.8047
岂	-11.8049
也绝无法	-11.8051
心里一阵的	-11.8052
另一块	-11.8056
暗自嘀咕	-11.8057
一道碗口粗	-11.8058
一下爆裂而开	-11.806
更有一些	-11.8065
心怀	-11.8067
可并不是	-11.8071
只觉眼前	-11.8072
那么一点	-11.8073
一振	-11.8074
异芒一闪	-11.8079
鹿	-11.808
人员	-11.8082
直奔对面	-11.8083
凉气	-11.8089
完好	-11.809
名额	-11.8094
响声	-11.8094
狰狞凶恶	-11.8098
砌成	-11.8099
蓝色火焰	-11.81
枝叶	-11.8102
岂是	-11.8103
安排好	-11.8104
身上青光一闪	-11.8111
娇叱	-11.8116
还远在	-11.8117
直追	-11.8118
摘	-11.8119
晶莹闪烁	-11.812
一瞪	-11.8129
趴伏在	-11.8131
百里之外	-11.8133
虫影	-11.8135
在银光中	-11.8136
一剑斩	-11.8143
买到	-11.8151
响了起来	-11.8158
拇指大	-11.8159
幻化成一只	-11.8161
不懂	-11.8163
▁听到韩立如此一	-11.8163
自由之身	-11.8166
化为一股股	-11.8167
数十丈远	-11.8168
凝成	-11.8178
平台上	-11.8183
也不会轻易	-11.8184
徐徐转动	-11.8185
试过	-11.8188
混进	-11.8197
根本不敢	-11.8203
刚才一击	-11.8204
毁灭	-11.8204
一伸	-11.8215
看待	-11.8216
灵族之人	-11.8219
普通法宝	-11.8221
再多说什么	-11.8224
一闪的消失不见	-11.8225
已成	-11.8226
匣中	-11.8226
红丝	-11.8237
檀	-11.8238
敢问	-11.824
大半年	-11.8244
低中阶	-11.8245
光霞一闪	-11.8246
有些苍白	-11.8248
脸露一丝	-11.825
抖动	-11.8257
十九	-11.8258
几个字	-11.8259
冻	-11.826
往高处	-11.826
宽大	-11.8261
观望	-11.8261
没记错	-11.8269
是应该的	-11.827
宝镜	-11.8272
丝毫表情没有	-11.8272
彻底炼化	-11.8275
老儒	-11.8279
一道黄光	-11.828
绿石老祖	-11.8284
转眼就	-11.8287
逆	-11.8288
炼化掉	-11.8288
弩箭	-11.8288
说不定还有	-11.8289
诚	-11.8289
罩在了	-11.829
进阶元婴后期	-11.8291
霜	-11.8292
半年时间	-11.8292
灰雾	-11.8292
浪费时间	-11.8293
悠	-11.8293
豁	-11.8293
卦	-11.8294
诧	-11.8294
贡	-11.8294
杖	-11.8294
恕	-11.8294
榜	-11.8294
偿	-11.8294
五花八门	-11.8294
冒此风险	-11.8294
拘	-11.8294
蓝瀑城	-11.8294
妍	-11.8295
跺	-11.8295
真灵之穴	-11.8295
从始至终	-11.8295
前段时间	-11.8295
太南谷	-11.8295
明王决	-11.8295
视若不见	-11.8295
丝毫感情没有	-11.8295
光秃秃	-11.8295
好自为之吧	-11.8295
眼都不眨一下	-11.8295
修罗圣火	-11.8295
冤枉	-11.8295
大占上风	-11.8295
显得神秘异常	-11.8295
血鹤城	-11.8295
一盏茶的工夫	-11.8295
哑然失笑	-11.8295
勃然大怒	-11.8295
屡	-11.8295
异变突起	-11.8295
昧	-11.8295
搂	-11.8295
事不宜迟	-11.8295
瘫	-11.8295
认准了	-11.8295
—	-11.8295
不容置疑	-11.8295
烤	-11.8295
铭记在心	-11.8295
枢	-11.8295
飞升之劫	-11.8295
万无一失	-11.8295
光阴之丝	-11.8295
吭	-11.8295
米粒大	-11.8295
脑勺	-11.8295
金袍人	-11.8295
不管不问	-11.8295
干净利索	-11.8295
张目结舌	-11.8295
喜笑颜开	-11.8295
基础功法	-11.8295
拽	-11.8295
赤火老怪	-11.8295
[...]
